{
  "version": "1.0",
  "truncation": null,
  "padding": null,
  "added_tokens": [
    {
      "id": 0,
      "content": "[PAD]",
      "single_word": false,
      "lstrip": false,
      "rstrip": false,
      "normalized": false,
      "special": true
    },
    {
      "id": 1,
      "content": "[UNK]",
      "single_word": false,
      "lstrip": false,
      "rstrip": false,
      "normalized": false,
      "special": true
    },
    {
      "id": 2,
      "content": "[EOS]",
      "single_word": false,
      "lstrip": false,
      "rstrip": false,
      "normalized": false,
      "special": true
    },
    {
      "id": 3,
      "content": "[EOF]",
      "single_word": false,
      "lstrip": false,
      "rstrip": false,
      "normalized": false,
      "special": true
    },
    {
      "id": 4,
      "content": "[MASK]",
      "single_word": false,
      "lstrip": false,
      "rstrip": false,
      "normalized": false,
      "special": true
    }
  ],
  "normalizer": null,
  "pre_tokenizer": {
    "type": "Whitespace"
  },
  "post_processor": null,
  "decoder": null,
  "model": {
    "type": "WordPiece",
    "unk_token": "[UNK]",
    "continuing_subword_prefix": "##",
    "max_input_chars_per_word": 100,
    "vocab": {
      "[PAD]": 0,
      "[UNK]": 1,
      "[EOS]": 2,
      "[EOF]": 3,
      "[MASK]": 4,
      "a": 5,
      "b": 6,
      "c": 7,
      "d": 8,
      "e": 9,
      "f": 10,
      "g": 11,
      "h": 12,
      "i": 13,
      "j": 14,
      "k": 15,
      "l": 16,
      "m": 17,
      "n": 18,
      "o": 19,
      "p": 20,
      "q": 21,
      "r": 22,
      "s": 23,
      "t": 24,
      "u": 25,
      "v": 26,
      "w": 27,
      "x": 28,
      "y": 29,
      "z": 30,
      "##m": 31,
      "##b": 32,
      "##e": 33,
      "##c": 34,
      "##i": 35,
      "##l": 36,
      "##s": 37,
      "##g": 38,
      "##h": 39,
      "##t": 40,
      "##w": 41,
      "##n": 42,
      "##r": 43,
      "##u": 44,
      "##a": 45,
      "##k": 46,
      "##v": 47,
      "##y": 48,
      "##p": 49,
      "##o": 50,
      "##d": 51,
      "##x": 52,
      "##f": 53,
      "##z": 54,
      "##q": 55,
      "##j": 56,
      "th": 57,
      "##in": 58,
      "##el": 59,
      "##er": 60,
      "##ing": 61,
      "##ou": 62,
      "fe": 63,
      "feel": 64,
      "##nd": 65,
      "##at": 66,
      "the": 67,
      "##ed": 68,
      "to": 69,
      "##or": 70,
      "##nt": 71,
      "and": 72,
      "##es": 73,
      "##it": 74,
      "##on": 75,
      "##ll": 76,
      "##ve": 77,
      "##ea": 78,
      "##is": 79,
      "you": 80,
      "##om": 81,
      "be": 82,
      "of": 83,
      "##re": 84,
      "##en": 85,
      "that": 86,
      "ha": 87,
      "wh": 88,
      "##st": 89,
      "##ot": 90,
      "##an": 91,
      "##ow": 92,
      "in": 93,
      "wa": 94,
      "it": 95,
      "##le": 96,
      "my": 97,
      "##ut": 98,
      "feeling": 99,
      "##et": 100,
      "##ke": 101,
      "##ar": 102,
      "li": 103,
      "##ay": 104,
      "##ic": 105,
      "##se": 106,
      "st": 107,
      "do": 108,
      "##gh": 109,
      "on": 110,
      "for": 111,
      "##ld": 112,
      "me": 113,
      "im": 114,
      "##id": 115,
      "is": 116,
      "##im": 117,
      "like": 118,
      "so": 119,
      "##ly": 120,
      "##ver": 121,
      "have": 122,
      "##ith": 123,
      "was": 124,
      "##ere": 125,
      "with": 126,
      "##ess": 127,
      "this": 128,
      "##ch": 129,
      "but": 130,
      "sh": 131,
      "##ion": 132,
      "not": 133,
      "##al": 134,
      "an": 135,
      "##ust": 136,
      "ab": 137,
      "am": 138,
      "##ur": 139,
      "##out": 140,
      "##ght": 141,
      "##oo": 142,
      "##ce": 143,
      "##ome": 144,
      "##ct": 145,
      "as": 146,
      "##lly": 147,
      "##ir": 148,
      "##ill": 149,
      "##ould": 150,
      "about": 151,
      "##ul": 152,
      "##ra": 153,
      "rea": 154,
      "##ent": 155,
      "##ck": 156,
      "##ri": 157,
      "at": 158,
      "##pp": 159,
      "ma": 160,
      "ne": 161,
      "just": 162,
      "we": 163,
      "kn": 164,
      "##th": 165,
      "su": 166,
      "go": 167,
      "##ore": 168,
      "##op": 169,
      "what": 170,
      "all": 171,
      "ca": 172,
      "##ight": 173,
      "##ell": 174,
      "know": 175,
      "##ear": 176,
      "al": 177,
      "when": 178,
      "or": 179,
      "##ro": 180,
      "##ous": 181,
      "re": 182,
      "##au": 183,
      "get": 184,
      "##am": 185,
      "wor": 186,
      "se": 187,
      "can": 188,
      "ch": 189,
      "out": 190,
      "up": 191,
      "##ter": 192,
      "lo": 193,
      "are": 194,
      "bec": 195,
      "##one": 196,
      "he": 197,
      "some": 198,
      "##ink": 199,
      "##ers": 200,
      "ex": 201,
      "##ful": 202,
      "ba": 203,
      "##ain": 204,
      "want": 205,
      "##ate": 206,
      "##ive": 207,
      "##ause": 208,
      "more": 209,
      "if": 210,
      "##ry": 211,
      "because": 212,
      "they": 213,
      "tim": 214,
      "##fe": 215,
      "##art": 216,
      "##il": 217,
      "##ble": 218,
      "##elf": 219,
      "##us": 220,
      "##ind": 221,
      "fr": 222,
      "dont": 223,
      "##est": 224,
      "com": 225,
      "ever": 226,
      "your": 227,
      "de": 228,
      "any": 229,
      "##itt": 230,
      "think": 231,
      "##rou": 232,
      "how": 233,
      "did": 234,
      "##ally": 235,
      "really": 236,
      "its": 237,
      "no": 238,
      "##ort": 239,
      "##ist": 240,
      "been": 241,
      "##ge": 242,
      "##un": 243,
      "un": 244,
      "##ery": 245,
      "fa": 246,
      "##hing": 247,
      "##her": 248,
      "now": 249,
      "by": 250,
      "##ely": 251,
      "time": 252,
      "co": 253,
      "would": 254,
      "##king": 255,
      "who": 256,
      "##ss": 257,
      "very": 258,
      "pl": 259,
      "will": 260,
      "##ong": 261,
      "##ated": 262,
      "him": 263,
      "##self": 264,
      "mo": 265,
      "som": 266,
      "one": 267,
      "her": 268,
      "somet": 269,
      "##end": 270,
      "int": 271,
      "##um": 272,
      "sa": 273,
      "##ood": 274,
      "had": 275,
      "##ation": 276,
      "see": 277,
      "thing": 278,
      "from": 279,
      "##ant": 280,
      "po": 281,
      "ta": 282,
      "con": 283,
      "pe": 284,
      "##ays": 285,
      "##ittle": 286,
      "sp": 287,
      "little": 288,
      "there": 289,
      "en": 290,
      "every": 291,
      "##ie": 292,
      "them": 293,
      "myself": 294,
      "peop": 295,
      "##ook": 296,
      "##ven": 297,
      "people": 298,
      "##ig": 299,
      "##ty": 300,
      "##ep": 301,
      "bl": 302,
      "##ress": 303,
      "could": 304,
      "than": 305,
      "##ving": 306,
      "us": 307,
      "ag": 308,
      "##ead": 309,
      "over": 310,
      "##ci": 311,
      "ive": 312,
      "got": 313,
      "going": 314,
      "being": 315,
      "dis": 316,
      "cl": 317,
      "even": 318,
      "pro": 319,
      "way": 320,
      "need": 321,
      "man": 322,
      "##and": 323,
      "##ast": 324,
      "bit": 325,
      "##ough": 326,
      "pre": 327,
      "mu": 328,
      "too": 329,
      "something": 330,
      "##ect": 331,
      "here": 332,
      "still": 333,
      "were": 334,
      "af": 335,
      "##ad": 336,
      "##ite": 337,
      "##able": 338,
      "she": 339,
      "##pt": 340,
      "make": 341,
      "right": 342,
      "well": 343,
      "much": 344,
      "say": 345,
      "gu": 346,
      "##ine": 347,
      "##ved": 348,
      "life": 349,
      "##thing": 350,
      "qu": 351,
      "##our": 352,
      "##ure": 353,
      "his": 354,
      "##nder": 355,
      "back": 356,
      "##ard": 357,
      "##ff": 358,
      "happ": 359,
      "good": 360,
      "##ish": 361,
      "##ol": 362,
      "oth": 363,
      "##ose": 364,
      "##ious": 365,
      "hel": 366,
      "things": 367,
      "##oy": 368,
      "##em": 369,
      "##ity": 370,
      "##ick": 371,
      "##de": 372,
      "love": 373,
      "pa": 374,
      "##riend": 375,
      "start": 376,
      "wr": 377,
      "help": 378,
      "aw": 379,
      "em": 380,
      "has": 381,
      "##ile": 382,
      "##own": 383,
      "tr": 384,
      "cant": 385,
      "##ich": 386,
      "##uck": 387,
      "look": 388,
      "##ide": 389,
      "pr": 390,
      "work": 391,
      "hear": 392,
      "##day": 393,
      "day": 394,
      "##reat": 395,
      "comp": 396,
      "then": 397,
      "##dy": 398,
      "should": 399,
      "##per": 400,
      "off": 401,
      "##ame": 402,
      "##ning": 403,
      "wo": 404,
      "let": 405,
      "##ice": 406,
      "friend": 407,
      "##as": 408,
      "never": 409,
      "##ment": 410,
      "id": 411,
      "di": 412,
      "##other": 413,
      "ad": 414,
      "into": 415,
      "tell": 416,
      "only": 417,
      "youre": 418,
      "why": 419,
      "res": 420,
      "##ting": 421,
      "##round": 422,
      "##ies": 423,
      "str": 424,
      "br": 425,
      "our": 426,
      "may": 427,
      "##ways": 428,
      "didnt": 429,
      "##ag": 430,
      "rel": 431,
      "again": 432,
      "year": 433,
      "bet": 434,
      "ac": 435,
      "these": 436,
      "##iss": 437,
      "after": 438,
      "part": 439,
      "always": 440,
      "other": 441,
      "##ber": 442,
      "try": 443,
      "##og": 444,
      "thats": 445,
      "##int": 446,
      "##os": 447,
      "their": 448,
      "act": 449,
      "le": 450,
      "##ft": 451,
      "rem": 452,
      "stu": 453,
      "ar": 454,
      "pret": 455,
      "cont": 456,
      "lea": 457,
      "##less": 458,
      "don": 459,
      "down": 460,
      "tw": 461,
      "which": 462,
      "long": 463,
      "where": 464,
      "##ought": 465,
      "##ean": 466,
      "ill": 467,
      "tal": 468,
      "##wh": 469,
      "sm": 470,
      "come": 471,
      "take": 472,
      "##kes": 473,
      "kind": 474,
      "pretty": 475,
      "##ool": 476,
      "##ually": 477,
      "##eas": 478,
      "most": 479,
      "pers": 480,
      "sc": 481,
      "bel": 482,
      "##ree": 483,
      "##so": 484,
      "##iz": 485,
      "##ressed": 486,
      "supp": 487,
      "around": 488,
      "##ip": 489,
      "##ace": 490,
      "hop": 491,
      "##ue": 492,
      "imp": 493,
      "thought": 494,
      "##ath": 495,
      "find": 496,
      "##ence": 497,
      "##eal": 498,
      "person": 499,
      "wee": 500,
      "##wn": 501,
      "dr": 502,
      "new": 503,
      "per": 504,
      "ke": 505,
      "ins": 506,
      "##ather": 507,
      "##ened": 508,
      "jo": 509,
      "##be": 510,
      "those": 511,
      "app": 512,
      "lot": 513,
      "also": 514,
      "bo": 515,
      "##ound": 516,
      "sure": 517,
      "sw": 518,
      "feels": 519,
      "does": 520,
      "ro": 521,
      "##pl": 522,
      "##rough": 523,
      "##ha": 524,
      "##ions": 525,
      "anything": 526,
      "today": 527,
      "real": 528,
      "under": 529,
      "##fore": 530,
      "##ves": 531,
      "give": 532,
      "##ily": 533,
      "made": 534,
      "through": 535,
      "doing": 536,
      "##az": 537,
      "feelings": 538,
      "hes": 539,
      "##cept": 540,
      "##ward": 541,
      "##na": 542,
      "before": 543,
      "home": 544,
      "##bly": 545,
      "last": 546,
      "sha": 547,
      "said": 548,
      "sl": 549,
      "##sh": 550,
      "##ild": 551,
      "read": 552,
      "##ens": 553,
      "someone": 554,
      "##ance": 555,
      "##ked": 556,
      "##get": 557,
      "though": 558,
      "##ang": 559,
      "fir": 560,
      "##pect": 561,
      "car": 562,
      "better": 563,
      "week": 564,
      "end": 565,
      "des": 566,
      "##ured": 567,
      "mean": 568,
      "##ult": 569,
      "gl": 570,
      "call": 571,
      "everything": 572,
      "##age": 573,
      "##ms": 574,
      "fuck": 575,
      "##pe": 576,
      "sin": 577,
      "own": 578,
      "har": 579,
      "keep": 580,
      "##ull": 581,
      "heart": 582,
      "put": 583,
      "##med": 584,
      "many": 585,
      "##ert": 586,
      "tra": 587,
      "##ach": 588,
      "##ange": 589,
      "enough": 590,
      "less": 591,
      "##irl": 592,
      "fl": 593,
      "first": 594,
      "happy": 595,
      "##row": 596,
      "##ack": 597,
      "god": 598,
      "conf": 599,
      "cou": 600,
      "##ied": 601,
      "quite": 602,
      "two": 603,
      "##atch": 604,
      "makes": 605,
      "ter": 606,
      "##ember": 607,
      "away": 608,
      "##qu": 609,
      "world": 610,
      "having": 611,
      "##all": 612,
      "##fort": 613,
      "left": 614,
      "remember": 615,
      "night": 616,
      "days": 617,
      "getting": 618,
      "##elt": 619,
      "bad": 620,
      "ph": 621,
      "##bl": 622,
      "gra": 623,
      "care": 624,
      "girl": 625,
      "guy": 626,
      "mar": 627,
      "##co": 628,
      "##gg": 629,
      "fam": 630,
      "oh": 631,
      "cra": 632,
      "##ass": 633,
      "##eak": 634,
      "without": 635,
      "##ever": 636,
      "list": 637,
      "##ten": 638,
      "dep": 639,
      "hope": 640,
      "felt": 641,
      "ho": 642,
      "such": 643,
      "maybe": 644,
      "fin": 645,
      "##urn": 646,
      "miss": 647,
      "dist": 648,
      "mor": 649,
      "##ired": 650,
      "##imes": 651,
      "##oth": 652,
      "##fect": 653,
      "##tt": 654,
      "##bo": 655,
      "actually": 656,
      "##com": 657,
      "hand": 658,
      "el": 659,
      "fo": 660,
      "few": 661,
      "friends": 662,
      "nothing": 663,
      "gen": 664,
      "while": 665,
      "##iting": 666,
      "talk": 667,
      "thank": 668,
      "years": 669,
      "ang": 670,
      "wonder": 671,
      "cr": 672,
      "accept": 673,
      "sur": 674,
      "sometimes": 675,
      "belie": 676,
      "yes": 677,
      "##ict": 678,
      "might": 679,
      "exc": 680,
      "hon": 681,
      "##act": 682,
      "pass": 683,
      "place": 684,
      "post": 685,
      "ass": 686,
      "##uct": 687,
      "##son": 688,
      "run": 689,
      "##fied": 690,
      "trying": 691,
      "##ness": 692,
      "show": 693,
      "must": 694,
      "##ank": 695,
      "##ud": 696,
      "##ged": 697,
      "inter": 698,
      "ok": 699,
      "att": 700,
      "##ited": 701,
      "old": 702,
      "blog": 703,
      "##xt": 704,
      "amaz": 705,
      "##ating": 706,
      "hard": 707,
      "underst": 708,
      "##ise": 709,
      "pain": 710,
      "##ken": 711,
      "htt": 712,
      "support": 713,
      "http": 714,
      "##ner": 715,
      "play": 716,
      "##let": 717,
      "cam": 718,
      "hur": 719,
      "sch": 720,
      "sit": 721,
      "##cess": 722,
      "##ular": 723,
      "##oment": 724,
      "moment": 725,
      "##read": 726,
      "ther": 727,
      "wal": 728,
      "use": 729,
      "##iv": 730,
      "##ertain": 731,
      "##ory": 732,
      "dec": 733,
      "terri": 734,
      "family": 735,
      "tri": 736,
      "##orm": 737,
      "started": 738,
      "emot": 739,
      "swe": 740,
      "head": 741,
      "sad": 742,
      "since": 743,
      "##peri": 744,
      "sle": 745,
      "##ces": 746,
      "##ng": 747,
      "great": 748,
      "##used": 749,
      "another": 750,
      "child": 751,
      "kid": 752,
      "sor": 753,
      "del": 754,
      "##ans": 755,
      "##ire": 756,
      "wom": 757,
      "understand": 758,
      "##ately": 759,
      "##mo": 760,
      "able": 761,
      "hate": 762,
      "gr": 763,
      "min": 764,
      "same": 765,
      "wanted": 766,
      "gener": 767,
      "mind": 768,
      "times": 769,
      "fun": 770,
      "inc": 771,
      "worth": 772,
      "##ird": 773,
      "##ual": 774,
      "ser": 775,
      "yet": 776,
      "guess": 777,
      "rather": 778,
      "alread": 779,
      "already": 780,
      "diff": 781,
      "bu": 782,
      "book": 783,
      "##oney": 784,
      "##body": 785,
      "##nth": 786,
      "loo": 787,
      "done": 788,
      "##red": 789,
      "self": 790,
      "##cent": 791,
      "hu": 792,
      "rest": 793,
      "word": 794,
      "told": 795,
      "##ump": 796,
      "##are": 797,
      "##ign": 798,
      "hor": 799,
      "alone": 800,
      "believe": 801,
      "##ced": 802,
      "##ical": 803,
      "complet": 804,
      "beg": 805,
      "##ortant": 806,
      "##imp": 807,
      "##by": 808,
      "##ref": 809,
      "theres": 810,
      "sleep": 811,
      "##ny": 812,
      "big": 813,
      "morning": 814,
      "##ject": 815,
      "##ord": 816,
      "watch": 817,
      "##vent": 818,
      "##ouse": 819,
      "href": 820,
      "gon": 821,
      "##eam": 822,
      "making": 823,
      "hum": 824,
      "sorry": 825,
      "##igh": 826,
      "gonna": 827,
      "sho": 828,
      "else": 829,
      "##ared": 830,
      "##een": 831,
      "##ract": 832,
      "school": 833,
      "##ute": 834,
      "strong": 835,
      "sweet": 836,
      "##lent": 837,
      "sk": 838,
      "point": 839,
      "job": 840,
      "whole": 841,
      "hurt": 842,
      "##ons": 843,
      "yea": 844,
      "##atter": 845,
      "##ined": 846,
      "went": 847,
      "##ably": 848,
      "stop": 849,
      "boy": 850,
      "##ater": 851,
      "##umb": 852,
      "yeah": 853,
      "ir": 854,
      "##no": 855,
      "ear": 856,
      "##ush": 857,
      "wrong": 858,
      "next": 859,
      "##fortable": 860,
      "##ense": 861,
      "spe": 862,
      "reason": 863,
      "##if": 864,
      "##ia": 865,
      "##eless": 866,
      "es": 867,
      "ent": 868,
      "face": 869,
      "once": 870,
      "hell": 871,
      "ve": 872,
      "inv": 873,
      "##ary": 874,
      "gi": 875,
      "##cial": 876,
      "##whel": 877,
      "##ew": 878,
      "##itated": 879,
      "leave": 880,
      "##gic": 881,
      "##vel": 882,
      "reg": 883,
      "overwhel": 884,
      "looking": 885,
      "##ap": 886,
      "comm": 887,
      "kill": 888,
      "hour": 889,
      "best": 890,
      "money": 891,
      "dra": 892,
      "##ident": 893,
      "cons": 894,
      "char": 895,
      "house": 896,
      "wont": 897,
      "stay": 898,
      "month": 899,
      "ext": 900,
      "bra": 901,
      "ener": 902,
      "##ne": 903,
      "thinking": 904,
      "others": 905,
      "op": 906,
      "##use": 907,
      "sat": 908,
      "##ret": 909,
      "##most": 910,
      "##pr": 911,
      "mr": 912,
      "##ored": 913,
      "appre": 914,
      "val": 915,
      "wasnt": 916,
      "pleas": 917,
      "write": 918,
      "fact": 919,
      "lost": 920,
      "found": 921,
      "##ionate": 922,
      "bea": 923,
      "almost": 924,
      "che": 925,
      "##iness": 926,
      "##gn": 927,
      "cur": 928,
      "ind": 929,
      "amazing": 930,
      "##usted": 931,
      "far": 932,
      "##joy": 933,
      "dam": 934,
      "toward": 935,
      "inst": 936,
      "class": 937,
      "art": 938,
      "everyone": 939,
      "came": 940,
      "war": 941,
      "unt": 942,
      "##io": 943,
      "experi": 944,
      "emotion": 945,
      "la": 946,
      "lear": 947,
      "bless": 948,
      "##ations": 949,
      "used": 950,
      "sy": 951,
      "doesnt": 952,
      "##cially": 953,
      "##ned": 954,
      "enjoy": 955,
      "##ppy": 956,
      "##ished": 957,
      "bus": 958,
      "##ease": 959,
      "##ised": 960,
      "weird": 961,
      "par": 962,
      "##ren": 963,
      "room": 964,
      "##ship": 965,
      "anyone": 966,
      "turn": 967,
      "prob": 968,
      "##ize": 969,
      "##ix": 970,
      "##rent": 971,
      "body": 972,
      "angry": 973,
      "##sit": 974,
      "each": 975,
      "##cy": 976,
      "##ps": 977,
      "##der": 978,
      "listen": 979,
      "stuff": 980,
      "adm": 981,
      "until": 982,
      "coming": 983,
      "completely": 984,
      "##ors": 985,
      "stressed": 986,
      "fear": 987,
      "##etic": 988,
      "loved": 989,
      "cour": 990,
      "overwhelmed": 991,
      "ey": 992,
      "least": 993,
      "ask": 994,
      "##app": 995,
      "count": 996,
      "whats": 997,
      "talking": 998,
      "often": 999,
      "##cou": 1000,
      "##ible": 1001,
      "posit": 1002,
      "strange": 1003,
      "probably": 1004,
      "##dd": 1005,
      "didn": 1006,
      "irr": 1007,
      "##ys": 1008,
      "##aught": 1009,
      "##ude": 1010,
      "tired": 1011,
      "important": 1012,
      "##cious": 1013,
      "prod": 1014,
      "isnt": 1015,
      "sort": 1016,
      "det": 1017,
      "past": 1018,
      "pres": 1019,
      "free": 1020,
      "##pid": 1021,
      "##oved": 1022,
      "live": 1023,
      "##mor": 1024,
      "cal": 1025,
      "##raid": 1026,
      "##istic": 1027,
      "##les": 1028,
      "guil": 1029,
      "ob": 1030,
      "set": 1031,
      "##ching": 1032,
      "afraid": 1033,
      "##ried": 1034,
      "working": 1035,
      "##uth": 1036,
      "partic": 1037,
      "bed": 1038,
      "##mm": 1039,
      "##ering": 1040,
      "##ized": 1041,
      "havent": 1042,
      "writing": 1043,
      "##amed": 1044,
      "perfect": 1045,
      "stupid": 1046,
      "excited": 1047,
      "blessed": 1048,
      "chr": 1049,
      "accepted": 1050,
      "okay": 1051,
      "mis": 1052,
      "##ib": 1053,
      "anx": 1054,
      "inside": 1055,
      "##led": 1056,
      "matter": 1057,
      "##ient": 1058,
      "meet": 1059,
      "valu": 1060,
      "hot": 1061,
      "##ug": 1062,
      "happen": 1063,
      "##ple": 1064,
      "##pecially": 1065,
      "saying": 1066,
      "especially": 1067,
      "mess": 1068,
      "##athetic": 1069,
      "shit": 1070,
      "knew": 1071,
      "gre": 1072,
      "three": 1073,
      "quest": 1074,
      "high": 1075,
      "trust": 1076,
      "theyre": 1077,
      "##ustr": 1078,
      "content": 1079,
      "pea": 1080,
      "ton": 1081,
      "plan": 1082,
      "mus": 1083,
      "##osed": 1084,
      "hated": 1085,
      "##ail": 1086,
      "##ings": 1087,
      "shes": 1088,
      "##oint": 1089,
      "poss": 1090,
      "bur": 1091,
      "mother": 1092,
      "toget": 1093,
      "##isfied": 1094,
      "fine": 1095,
      "def": 1096,
      "press": 1097,
      "together": 1098,
      "##pped": 1099,
      "eas": 1100,
      "rec": 1101,
      "wish": 1102,
      "stand": 1103,
      "somewh": 1104,
      "##bb": 1105,
      "nice": 1106,
      "beaut": 1107,
      "creat": 1108,
      "pri": 1109,
      "tot": 1110,
      "ann": 1111,
      "ner": 1112,
      "##ph": 1113,
      "baby": 1114,
      "hold": 1115,
      "mom": 1116,
      "dev": 1117,
      "##erent": 1118,
      "##rem": 1119,
      "sub": 1120,
      "##cked": 1121,
      "sense": 1122,
      "##icious": 1123,
      "disapp": 1124,
      "proble": 1125,
      "scared": 1126,
      "peace": 1127,
      "##ically": 1128,
      "expl": 1129,
      "##way": 1130,
      "cold": 1131,
      "particular": 1132,
      "kids": 1133,
      "share": 1134,
      "##ered": 1135,
      "couldnt": 1136,
      "##orn": 1137,
      "exp": 1138,
      "##ark": 1139,
      "##vers": 1140,
      "##right": 1141,
      "change": 1142,
      "trou": 1143,
      "product": 1144,
      "move": 1145,
      "christ": 1146,
      "eat": 1147,
      "luck": 1148,
      "wouldnt": 1149,
      "bro": 1150,
      "##ative": 1151,
      "##ither": 1152,
      "rep": 1153,
      "##ier": 1154,
      "emb": 1155,
      "lately": 1156,
      "##uring": 1157,
      "course": 1158,
      "youve": 1159,
      "idea": 1160,
      "##ax": 1161,
      "frustr": 1162,
      "add": 1163,
      "##llow": 1164,
      "wear": 1165,
      "joy": 1166,
      "helpless": 1167,
      "##ian": 1168,
      "starting": 1169,
      "##vely": 1170,
      "##oid": 1171,
      "surpr": 1172,
      "begin": 1173,
      "wonderful": 1174,
      "special": 1175,
      "##ta": 1176,
      "different": 1177,
      "words": 1178,
      "name": 1179,
      "passionate": 1180,
      "##ac": 1181,
      "honest": 1182,
      "tea": 1183,
      "walk": 1184,
      "guys": 1185,
      "happened": 1186,
      "suc": 1187,
      "##raged": 1188,
      "towards": 1189,
      "inf": 1190,
      "slight": 1191,
      "wait": 1192,
      "deal": 1193,
      "expect": 1194,
      "##ully": 1195,
      "certain": 1196,
      "tend": 1197,
      "taking": 1198,
      "super": 1199,
      "spend": 1200,
      "took": 1201,
      "respect": 1202,
      "situ": 1203,
      "met": 1204,
      "hal": 1205,
      "deep": 1206,
      "please": 1207,
      "hours": 1208,
      "##ibly": 1209,
      "glad": 1210,
      "##ition": 1211,
      "simp": 1212,
      "fall": 1213,
      "fucking": 1214,
      "##gy": 1215,
      "##itting": 1216,
      "ap": 1217,
      "woman": 1218,
      "tor": 1219,
      "agitated": 1220,
      "cool": 1221,
      "lon": 1222,
      "##more": 1223,
      "interest": 1224,
      "both": 1225,
      "##ateful": 1226,
      "##vie": 1227,
      "mad": 1228,
      "supporting": 1229,
      "saw": 1230,
      "break": 1231,
      "##ling": 1232,
      "uns": 1233,
      "pu": 1234,
      "dri": 1235,
      "months": 1236,
      "tonight": 1237,
      "##ial": 1238,
      "##uly": 1239,
      "##vious": 1240,
      "story": 1241,
      "food": 1242,
      "relax": 1243,
      "##ility": 1244,
      "father": 1245,
      "become": 1246,
      "ment": 1247,
      "##ided": 1248,
      "bar": 1249,
      "anymore": 1250,
      "##cond": 1251,
      "ret": 1252,
      "##ower": 1253,
      "##chy": 1254,
      "appreci": 1255,
      "young": 1256,
      "comes": 1257,
      "open": 1258,
      "##ade": 1259,
      "men": 1260,
      "cause": 1261,
      "##irt": 1262,
      "ago": 1263,
      "ref": 1264,
      "anxious": 1265,
      "full": 1266,
      "te": 1267,
      "unc": 1268,
      "##aged": 1269,
      "pet": 1270,
      "experience": 1271,
      "safe": 1272,
      "weeks": 1273,
      "cre": 1274,
      "##ween": 1275,
      "##sw": 1276,
      "##cus": 1277,
      "imag": 1278,
      "relation": 1279,
      "children": 1280,
      "pop": 1281,
      "seem": 1282,
      "positive": 1283,
      "guilty": 1284,
      "##vin": 1285,
      "heal": 1286,
      "##vous": 1287,
      "between": 1288,
      "cry": 1289,
      "finally": 1290,
      "eyes": 1291,
      "bother": 1292,
      "contro": 1293,
      "depressed": 1294,
      "youll": 1295,
      "second": 1296,
      "pol": 1297,
      "half": 1298,
      "##its": 1299,
      "bring": 1300,
      "nervous": 1301,
      "truly": 1302,
      "generous": 1303,
      "sing": 1304,
      "abs": 1305,
      "dou": 1306,
      "parent": 1307,
      "totally": 1308,
      "light": 1309,
      "soon": 1310,
      "calm": 1311,
      "hom": 1312,
      "##man": 1313,
      "relationship": 1314,
      "side": 1315,
      "##ments": 1316,
      "extrem": 1317,
      "contin": 1318,
      "thankful": 1319,
      "disappoint": 1320,
      "##ital": 1321,
      "ty": 1322,
      "##zy": 1323,
      "faith": 1324,
      "success": 1325,
      "##ities": 1326,
      "living": 1327,
      "liked": 1328,
      "comfortable": 1329,
      "emp": 1330,
      "##ulted": 1331,
      "coll": 1332,
      "da": 1333,
      "pay": 1334,
      "##anger": 1335,
      "slightly": 1336,
      "either": 1337,
      "##not": 1338,
      "amp": 1339,
      "loving": 1340,
      "emotional": 1341,
      "frustrated": 1342,
      "ign": 1343,
      "sent": 1344,
      "##oring": 1345,
      "##ction": 1346,
      "called": 1347,
      "consid": 1348,
      "vis": 1349,
      "##mp": 1350,
      "sex": 1351,
      "sound": 1352,
      "grou": 1353,
      "##ures": 1354,
      "lets": 1355,
      "seen": 1356,
      "##iful": 1357,
      "horri": 1358,
      "##ates": 1359,
      "allow": 1360,
      "confident": 1361,
      "suff": 1362,
      "reading": 1363,
      "women": 1364,
      "beat": 1365,
      "against": 1366,
      "annoy": 1367,
      "gone": 1368,
      "funny": 1369,
      "##ying": 1370,
      "compl": 1371,
      "during": 1372,
      "##come": 1373,
      "##roud": 1374,
      "ed": 1375,
      "low": 1376,
      "##ents": 1377,
      "proud": 1378,
      "##als": 1379,
      "##band": 1380,
      "exha": 1381,
      "close": 1382,
      "opt": 1383,
      "insp": 1384,
      "says": 1385,
      "##rass": 1386,
      "instead": 1387,
      "priv": 1388,
      "fro": 1389,
      "gent": 1390,
      "##ross": 1391,
      "embar": 1392,
      "lonely": 1393,
      "dead": 1394,
      "hus": 1395,
      "pur": 1396,
      "##ught": 1397,
      "##irty": 1398,
      "beautiful": 1399,
      "tou": 1400,
      "sick": 1401,
      "##cer": 1402,
      "couple": 1403,
      "lucky": 1404,
      "dad": 1405,
      "##ili": 1406,
      "##br": 1407,
      "##illed": 1408,
      "drink": 1409,
      "##morrow": 1410,
      "##ellow": 1411,
      "husband": 1412,
      "particularly": 1413,
      "med": 1414,
      "tomorrow": 1415,
      "##unity": 1416,
      "win": 1417,
      "small": 1418,
      "decided": 1419,
      "pun": 1420,
      "##air": 1421,
      "exact": 1422,
      "truth": 1423,
      "##ime": 1424,
      "col": 1425,
      "woke": 1426,
      "yourself": 1427,
      "follow": 1428,
      "control": 1429,
      "beloved": 1430,
      "##ugg": 1431,
      "extremely": 1432,
      "fut": 1433,
      "div": 1434,
      "##ging": 1435,
      "whatever": 1436,
      "tort": 1437,
      "incred": 1438,
      "pick": 1439,
      "##ues": 1440,
      "uncom": 1441,
      "resp": 1442,
      "forg": 1443,
      "cho": 1444,
      "##olut": 1445,
      "defin": 1446,
      "fool": 1447,
      "thr": 1448,
      "##olved": 1449,
      "running": 1450,
      "##ma": 1451,
      "##iet": 1452,
      "supposed": 1453,
      "pict": 1454,
      "##ming": 1455,
      "hair": 1456,
      "asked": 1457,
      "##ife": 1458,
      "##ock": 1459,
      "music": 1460,
      "opp": 1461,
      "smart": 1462,
      "embarrass": 1463,
      "rom": 1464,
      "fig": 1465,
      "stre": 1466,
      "neg": 1467,
      "along": 1468,
      "##astic": 1469,
      "terrible": 1470,
      "wel": 1471,
      "thoughts": 1472,
      "##pping": 1473,
      "cannot": 1474,
      "heard": 1475,
      "situation": 1476,
      "ready": 1477,
      "longer": 1478,
      "admit": 1479,
      "lau": 1480,
      "oc": 1481,
      "ra": 1482,
      "rich": 1483,
      "seems": 1484,
      "lovely": 1485,
      "##ensive": 1486,
      "energy": 1487,
      "stud": 1488,
      "hands": 1489,
      "ga": 1490,
      "##bt": 1491,
      "usually": 1492,
      "unw": 1493,
      "exhausted": 1494,
      "pie": 1495,
      "##up": 1496,
      "##sec": 1497,
      "confused": 1498,
      "future": 1499,
      "##bled": 1500,
      "disappointed": 1501,
      "##gly": 1502,
      "##ks": 1503,
      "surprised": 1504,
      "son": 1505,
      "knowing": 1506,
      "norm": 1507,
      "answ": 1508,
      "uncomfortable": 1509,
      "##atient": 1510,
      "##ub": 1511,
      "##olog": 1512,
      "gentle": 1513,
      "const": 1514,
      "##ister": 1515,
      "regret": 1516,
      "grow": 1517,
      "##lect": 1518,
      "worry": 1519,
      "##fend": 1520,
      "##itty": 1521,
      "danger": 1522,
      "four": 1523,
      "sec": 1524,
      "cute": 1525,
      "##cri": 1526,
      "##ky": 1527,
      "##ger": 1528,
      "##antly": 1529,
      "business": 1530,
      "##side": 1531,
      "##erable": 1532,
      "##sp": 1533,
      "##nect": 1534,
      "##erm": 1535,
      "##ealous": 1536,
      "seeing": 1537,
      "##ond": 1538,
      "phot": 1539,
      "jealous": 1540,
      "##ushed": 1541,
      "##atic": 1542,
      "state": 1543,
      "##ulous": 1544,
      "relie": 1545,
      "kinda": 1546,
      "ones": 1547,
      "##ager": 1548,
      "numb": 1549,
      "mine": 1550,
      "spent": 1551,
      "nat": 1552,
      "eng": 1553,
      "missed": 1554,
      "disco": 1555,
      "telling": 1556,
      "##orge": 1557,
      "exactly": 1558,
      "insec": 1559,
      "awful": 1560,
      "touch": 1561,
      "fil": 1562,
      "hey": 1563,
      "true": 1564,
      "threat": 1565,
      "##ote": 1566,
      "country": 1567,
      "##friend": 1568,
      "serious": 1569,
      "horrible": 1570,
      "dumb": 1571,
      "convin": 1572,
      "piss": 1573,
      "##kward": 1574,
      "##gs": 1575,
      "ash": 1576,
      "awkward": 1577,
      "beh": 1578,
      "tried": 1579,
      "##bed": 1580,
      "tortured": 1581,
      "fight": 1582,
      "unha": 1583,
      "useless": 1584,
      "disg": 1585,
      "health": 1586,
      "event": 1587,
      "##how": 1588,
      "##iment": 1589,
      "reject": 1590,
      "miserable": 1591,
      "somewhat": 1592,
      "##otten": 1593,
      "gotta": 1594,
      "giving": 1595,
      "symp": 1596,
      "##ake": 1597,
      "##ioned": 1598,
      "##dden": 1599,
      "game": 1600,
      "##sel": 1601,
      "skin": 1602,
      "##ww": 1603,
      "##fully": 1604,
      "vul": 1605,
      "top": 1606,
      "aint": 1607,
      "##sing": 1608,
      "anyway": 1609,
      "mel": 1610,
      "##itely": 1611,
      "forget": 1612,
      "bitter": 1613,
      "unhappy": 1614,
      "song": 1615,
      "##ab": 1616,
      "##ether": 1617,
      "bas": 1618,
      "talent": 1619,
      "##cing": 1620,
      "##utes": 1621,
      "girls": 1622,
      "sudden": 1623,
      "chang": 1624,
      "wants": 1625,
      "absolut": 1626,
      "inno": 1627,
      "distract": 1628,
      "mid": 1629,
      "waiting": 1630,
      "successful": 1631,
      "mil": 1632,
      "power": 1633,
      "empty": 1634,
      "embarrassed": 1635,
      "wake": 1636,
      "spir": 1637,
      "precious": 1638,
      "hopeless": 1639,
      "cor": 1640,
      "##my": 1641,
      "annoyed": 1642,
      "gets": 1643,
      "parents": 1644,
      "##itable": 1645,
      "phys": 1646,
      "vulner": 1647,
      "##ee": 1648,
      "##att": 1649,
      "shitty": 1650,
      "speak": 1651,
      "absolutely": 1652,
      "fab": 1653,
      "air": 1654,
      "prom": 1655,
      "explain": 1656,
      "front": 1657,
      "creative": 1658,
      "bothered": 1659,
      "doubt": 1660,
      "homes": 1661,
      "##ins": 1662,
      "question": 1663,
      "relaxed": 1664,
      "later": 1665,
      "pull": 1666,
      "needs": 1667,
      "near": 1668,
      "chance": 1669,
      "##antic": 1670,
      "dish": 1671,
      "##gr": 1672,
      "fucked": 1673,
      "selfish": 1674,
      "##couraged": 1675,
      "gave": 1676,
      "##fic": 1677,
      "##ones": 1678,
      "case": 1679,
      "advent": 1680,
      "incredibly": 1681,
      "death": 1682,
      "caring": 1683,
      "##itch": 1684,
      "intim": 1685,
      "lead": 1686,
      "connect": 1687,
      "human": 1688,
      "dangerous": 1689,
      "insecure": 1690,
      "fra": 1691,
      "step": 1692,
      "order": 1693,
      "cut": 1694,
      "##ork": 1695,
      "minutes": 1696,
      "damn": 1697,
      "ah": 1698,
      "gro": 1699,
      "sitting": 1700,
      "www": 1701,
      "dream": 1702,
      "problem": 1703,
      "definitely": 1704,
      "vulnerable": 1705,
      "cas": 1706,
      "somehow": 1707,
      "looks": 1708,
      "glo": 1709,
      "satisfied": 1710,
      "determ": 1711,
      "##ount": 1712,
      "needed": 1713,
      "##ster": 1714,
      "personal": 1715,
      "lad": 1716,
      "red": 1717,
      "iss": 1718,
      "breat": 1719,
      "wind": 1720,
      "star": 1721,
      "innocent": 1722,
      "dull": 1723,
      "five": 1724,
      "isol": 1725,
      "productive": 1726,
      "summ": 1727,
      "diss": 1728,
      "short": 1729,
      "given": 1730,
      "desp": 1731,
      "##rived": 1732,
      "dire": 1733,
      "pleasant": 1734,
      "boring": 1735,
      "mea": 1736,
      "black": 1737,
      "check": 1738,
      "ev": 1739,
      "lives": 1740,
      "blank": 1741,
      "friendly": 1742,
      "watching": 1743,
      "paran": 1744,
      "burd": 1745,
      "clear": 1746,
      "unsure": 1747,
      "behind": 1748,
      "vict": 1749,
      "##anch": 1750,
      "weve": 1751,
      "fail": 1752,
      "crazy": 1753,
      "yester": 1754,
      "teach": 1755,
      "sir": 1756,
      "sign": 1757,
      "##ines": 1758,
      "resent": 1759,
      "charact": 1760,
      "broke": 1761,
      "uncertain": 1762,
      "offend": 1763,
      "##har": 1764,
      "weight": 1765,
      "##ele": 1766,
      "outside": 1767,
      "ashamed": 1768,
      "stra": 1769,
      "##unch": 1770,
      "romantic": 1771,
      "ugly": 1772,
      "##ott": 1773,
      "##ics": 1774,
      "##ellig": 1775,
      "peaceful": 1776,
      "wan": 1777,
      "##ctor": 1778,
      "impressed": 1779,
      "convinced": 1780,
      "water": 1781,
      "##cere": 1782,
      "prog": 1783,
      "means": 1784,
      "wife": 1785,
      "##ention": 1786,
      "fant": 1787,
      "fake": 1788,
      "realize": 1789,
      "useful": 1790,
      "inspired": 1791,
      "pissed": 1792,
      "##mas": 1793,
      "inade": 1794,
      "inadequ": 1795,
      "rid": 1796,
      "vo": 1797,
      "##set": 1798,
      "##ah": 1799,
      "##ste": 1800,
      "mem": 1801,
      "knows": 1802,
      "taken": 1803,
      "simply": 1804,
      "##ike": 1805,
      "distur": 1806,
      "worthless": 1807,
      "brave": 1808,
      "yesterday": 1809,
      "privile": 1810,
      "##ining": 1811,
      "intellig": 1812,
      "leaving": 1813,
      "##while": 1814,
      "perha": 1815,
      "isolated": 1816,
      "##edy": 1817,
      "thanks": 1818,
      "learn": 1819,
      "perhaps": 1820,
      "cle": 1821,
      "##ndred": 1822,
      "discouraged": 1823,
      "prof": 1824,
      "publ": 1825,
      "popular": 1826,
      "##ames": 1827,
      "minute": 1828,
      "curious": 1829,
      "hit": 1830,
      "uni": 1831,
      "sun": 1832,
      "whenever": 1833,
      "quick": 1834,
      "##sy": 1835,
      "whether": 1836,
      "goes": 1837,
      "suppose": 1838,
      "terrified": 1839,
      "late": 1840,
      "strugg": 1841,
      "remind": 1842,
      "sn": 1843,
      "unl": 1844,
      "rejected": 1845,
      "ec": 1846,
      "alth": 1847,
      "phone": 1848,
      "valuable": 1849,
      "ways": 1850,
      "buy": 1851,
      "dirty": 1852,
      "mood": 1853,
      "pathetic": 1854,
      "##oul": 1855,
      "##kend": 1856,
      "weekend": 1857,
      "respected": 1858,
      "aching": 1859,
      "rude": 1860,
      "youd": 1861,
      "##eart": 1862,
      "amazed": 1863,
      "worthwhile": 1864,
      "vio": 1865,
      "energet": 1866,
      "wanna": 1867,
      "##aded": 1868,
      "determined": 1869,
      "lack": 1870,
      "optim": 1871,
      "divine": 1872,
      "paranoid": 1873,
      "inadequate": 1874,
      "although": 1875,
      "rushed": 1876,
      "##uc": 1877,
      "fav": 1878,
      "hundred": 1879,
      "irritable": 1880,
      "laugh": 1881,
      "##selves": 1882,
      "offended": 1883,
      "shocked": 1884,
      "violent": 1885,
      "##icate": 1886,
      "insulted": 1887,
      "slow": 1888,
      "energetic": 1889,
      "mot": 1890,
      "longing": 1891,
      "jack": 1892,
      "ele": 1893,
      "fest": 1894,
      "compan": 1895,
      "spirit": 1896,
      "ll": 1897,
      "##outh": 1898,
      "acceptable": 1899,
      "##umpy": 1900,
      "faithful": 1901,
      "##ousand": 1902,
      "lethar": 1903,
      "##anky": 1904,
      "distracted": 1905,
      "##omy": 1906,
      "##ets": 1907,
      "shy": 1908,
      "##ards": 1909,
      "assured": 1910,
      "needy": 1911,
      "restless": 1912,
      "began": 1913,
      "appreh": 1914,
      "lose": 1915,
      "irritated": 1916,
      "easy": 1917,
      "die": 1918,
      "valued": 1919,
      "intimid": 1920,
      "lethargic": 1921,
      "thousand": 1922,
      "##ane": 1923,
      "pray": 1924,
      "troubled": 1925,
      "sympathetic": 1926,
      "hopeful": 1927,
      "tender": 1928,
      "relieved": 1929,
      "reass": 1930,
      "homesick": 1931,
      "##stal": 1932,
      "delicious": 1933,
      "joyful": 1934,
      "suffering": 1935,
      "hea": 1936,
      "acc": 1937,
      "jud": 1938,
      "##otect": 1939,
      "fair": 1940,
      "sens": 1941,
      "##yle": 1942,
      "sto": 1943,
      "sol": 1944,
      "defe": 1945,
      "hesit": 1946,
      "drained": 1947,
      "pressured": 1948,
      "express": 1949,
      "summer": 1950,
      "av": 1951,
      "ten": 1952,
      "##umber": 1953,
      "sincere": 1954,
      "cranky": 1955,
      "threatened": 1956,
      "gorge": 1957,
      "ru": 1958,
      "grand": 1959,
      "talented": 1960,
      "##ession": 1961,
      "crappy": 1962,
      "decis": 1963,
      "foolish": 1964,
      "##iot": 1965,
      "reluct": 1966,
      "##ggy": 1967,
      "pleased": 1968,
      "apprehensive": 1969,
      "naught": 1970,
      "privileged": 1971,
      "optimistic": 1972,
      "gorgeous": 1973,
      "warm": 1974,
      "imagine": 1975,
      "clever": 1976,
      "fi": 1977,
      "treat": 1978,
      "project": 1979,
      "bitchy": 1980,
      "adv": 1981,
      "resentful": 1982,
      "movie": 1983,
      "disgusted": 1984,
      "hang": 1985,
      "recent": 1986,
      "arent": 1987,
      "##igor": 1988,
      "##oly": 1989,
      "emotions": 1990,
      "humili": 1991,
      "devast": 1992,
      "honestly": 1993,
      "return": 1994,
      "consider": 1995,
      "city": 1996,
      "dark": 1997,
      "fright": 1998,
      "soci": 1999,
      "christmas": 2000,
      "intimidated": 2001,
      "ach": 2002,
      "line": 2003,
      "somebody": 2004,
      "nostal": 2005,
      "grumpy": 2006,
      "punished": 2007,
      "reluctant": 2008,
      "naughty": 2009,
      "rotten": 2010,
      "##ides": 2011,
      "ignored": 2012,
      "eager": 2013,
      "nor": 2014,
      "wed": 2015,
      "##bro": 2016,
      "##uous": 2017,
      "##eric": 2018,
      "shot": 2019,
      "##ash": 2020,
      "welcom": 2021,
      "daught": 2022,
      "lame": 2023,
      "vain": 2024,
      "exam": 2025,
      "beaten": 2026,
      "fre": 2027,
      "fur": 2028,
      "lous": 2029,
      "##erence": 2030,
      "##iter": 2031,
      "within": 2032,
      "opport": 2033,
      "disturbed": 2034,
      "sister": 2035,
      "##ats": 2036,
      "prop": 2037,
      "office": 2038,
      "dissat": 2039,
      "cop": 2040,
      "rece": 2041,
      "impatient": 2042,
      "melanch": 2043,
      "din": 2044,
      "eating": 2045,
      "jes": 2046,
      "door": 2047,
      "superi": 2048,
      "upset": 2049,
      "six": 2050,
      "tear": 2051,
      "throw": 2052,
      "except": 2053,
      "books": 2054,
      "##ding": 2055,
      "send": 2056,
      "trans": 2057,
      "experien": 2058,
      "possible": 2059,
      "lousy": 2060,
      "superior": 2061,
      "eff": 2062,
      "##eaking": 2063,
      "clean": 2064,
      "intelligent": 2065,
      "virt": 2066,
      "##omed": 2067,
      "wanting": 2068,
      "looked": 2069,
      "##ntic": 2070,
      "americ": 2071,
      "burdened": 2072,
      "dissatisfied": 2073,
      "bir": 2074,
      "heartbro": 2075,
      "beginning": 2076,
      "devastated": 2077,
      "heartbroken": 2078,
      "tem": 2079,
      "doll": 2080,
      "shaky": 2081,
      "##fortun": 2082,
      "reach": 2083,
      "joh": 2084,
      "groggy": 2085,
      "grateful": 2086,
      "thrilled": 2087,
      "suddenly": 2088,
      "town": 2089,
      "using": 2090,
      "host": 2091,
      "greedy": 2092,
      "occ": 2093,
      "humiliated": 2094,
      "melancholy": 2095,
      "##gan": 2096,
      "##vi": 2097,
      "wall": 2098,
      "unimp": 2099,
      "early": 2100,
      "festive": 2101,
      "##ances": 2102,
      "ungr": 2103,
      "continue": 2104,
      "normal": 2105,
      "breath": 2106,
      "hesitant": 2107,
      "##ung": 2108,
      "unfortun": 2109,
      "##ept": 2110,
      "type": 2111,
      "unimportant": 2112,
      "ungrateful": 2113,
      "##dle": 2114,
      "deprived": 2115,
      "honored": 2116,
      "soul": 2117,
      "##ze": 2118,
      "however": 2119,
      "single": 2120,
      "fantastic": 2121,
      "hol": 2122,
      "nostalgic": 2123,
      "##ca": 2124,
      "##esh": 2125,
      "defeated": 2126,
      "john": 2127,
      "##ices": 2128,
      "abused": 2129,
      "idiot": 2130,
      "smile": 2131,
      "regretful": 2132,
      "##rew": 2133,
      "brother": 2134,
      "##where": 2135,
      "welcomed": 2136,
      "asking": 2137,
      "resolved": 2138,
      "group": 2139,
      "answer": 2140,
      "et": 2141,
      "party": 2142,
      "fabulous": 2143,
      "reassured": 2144,
      "team": 2145,
      "##ories": 2146,
      "doctor": 2147,
      "convers": 2148,
      "damaged": 2149,
      "piece": 2150,
      "birth": 2151,
      "vital": 2152,
      "##ars": 2153,
      "nobody": 2154,
      "boys": 2155,
      "gloomy": 2156,
      "mellow": 2157,
      "blood": 2158,
      "level": 2159,
      "frightened": 2160,
      "ya": 2161,
      "sentiment": 2162,
      "test": 2163,
      "worse": 2164,
      "##oured": 2165,
      "law": 2166,
      "unwel": 2167,
      "adventur": 2168,
      "number": 2169,
      "happens": 2170,
      "present": 2171,
      "pract": 2172,
      "##land": 2173,
      "reb": 2174,
      "supportive": 2175,
      "##eld": 2176,
      "forward": 2177,
      "news": 2178,
      "descri": 2179,
      "unwelcome": 2180,
      "age": 2181,
      "smug": 2182,
      "married": 2183,
      "wronged": 2184,
      "##ney": 2185,
      "apart": 2186,
      "lie": 2187,
      "doomed": 2188,
      "moments": 2189,
      "trusting": 2190,
      "disheart": 2191,
      "adventurous": 2192,
      "disheartened": 2193,
      "problems": 2194,
      "tre": 2195,
      "moving": 2196,
      "jour": 2197,
      "si": 2198,
      "##iday": 2199,
      "jaded": 2200,
      "##room": 2201,
      "invigor": 2202,
      "due": 2203,
      "worried": 2204,
      "mill": 2205,
      "##bs": 2206,
      "invigorated": 2207,
      "lay": 2208,
      "white": 2209,
      "everybody": 2210,
      "cloth": 2211,
      "build": 2212,
      "questions": 2213,
      "trouble": 2214,
      "##miss": 2215,
      "messy": 2216,
      "respons": 2217,
      "##aring": 2218,
      "form": 2219,
      "shouldnt": 2220,
      "attention": 2221,
      "killed": 2222,
      "dan": 2223,
      "##free": 2224,
      "##ism": 2225,
      "sentimental": 2226,
      "##aw": 2227,
      "##ator": 2228,
      "maj": 2229,
      "loy": 2230,
      "becom": 2231,
      "prep": 2232,
      "pregn": 2233,
      "affect": 2234,
      "fing": 2235,
      "##ists": 2236,
      "##unk": 2237,
      "deser": 2238,
      "figure": 2239,
      "effort": 2240,
      "loyal": 2241,
      "dress": 2242,
      "fire": 2243,
      "kept": 2244,
      "sal": 2245,
      "##ety": 2246,
      "accom": 2247,
      "earth": 2248,
      "clos": 2249,
      "general": 2250,
      "##view": 2251,
      "mer": 2252,
      "won": 2253,
      "##iew": 2254,
      "petty": 2255,
      "ut": 2256,
      "##ters": 2257,
      "somewhere": 2258,
      "jesus": 2259,
      "mon": 2260,
      "ur": 2261,
      "constantly": 2262,
      "##ray": 2263,
      "dinner": 2264,
      "view": 2265,
      "##ising": 2266,
      "##ton": 2267,
      "choo": 2268,
      "scr": 2269,
      "putting": 2270,
      "##ills": 2271,
      "shaken": 2272,
      "finished": 2273,
      "realized": 2274,
      "carefree": 2275,
      "etc": 2276,
      "process": 2277,
      "walking": 2278,
      "incl": 2279,
      "current": 2280,
      "ecst": 2281,
      "daughter": 2282,
      "opportunity": 2283,
      "##oun": 2284,
      "result": 2285,
      "##ively": 2286,
      "secret": 2287,
      "straight": 2288,
      "rad": 2289,
      "wasn": 2290,
      "##rought": 2291,
      "space": 2292,
      "##allen": 2293,
      "delicate": 2294,
      "busy": 2295,
      "victim": 2296,
      "favor": 2297,
      "clothes": 2298,
      "shut": 2299,
      "chur": 2300,
      "sim": 2301,
      "worked": 2302,
      "discont": 2303,
      "feet": 2304,
      "##itude": 2305,
      "stress": 2306,
      "##nday": 2307,
      "gift": 2308,
      "certainly": 2309,
      "lar": 2310,
      "protect": 2311,
      "twent": 2312,
      "honoured": 2313,
      "trip": 2314,
      "ecstatic": 2315,
      "catch": 2316,
      "fearful": 2317,
      "visit": 2318,
      "public": 2319,
      "fat": 2320,
      "mist": 2321,
      "challen": 2322,
      "concer": 2323,
      "##count": 2324,
      "discontent": 2325,
      "horny": 2326,
      "shoot": 2327,
      "church": 2328,
      "brought": 2329,
      "uh": 2330,
      "fast": 2331,
      "himself": 2332,
      "company": 2333,
      "##ges": 2334,
      "##ffect": 2335,
      "susp": 2336,
      "envious": 2337,
      "cir": 2338,
      "kiss": 2339,
      "##orous": 2340,
      "finish": 2341,
      "virtuous": 2342,
      "pen": 2343,
      "playing": 2344,
      "record": 2345,
      "##iced": 2346,
      "stom": 2347,
      "amount": 2348,
      "inform": 2349,
      "gun": 2350,
      "##ring": 2351,
      "##els": 2352,
      "##idence": 2353,
      "flo": 2354,
      "mark": 2355,
      "rebell": 2356,
      "##itle": 2357,
      "cond": 2358,
      "cover": 2359,
      "poor": 2360,
      "##others": 2361,
      "picture": 2362,
      "na": 2363,
      "drive": 2364,
      "unloved": 2365,
      "unfortunate": 2366,
      "##go": 2367,
      "ball": 2368,
      "diffic": 2369,
      "contented": 2370,
      "casual": 2371,
      "cent": 2372,
      "pot": 2373,
      "##book": 2374,
      "##hib": 2375,
      "##ishing": 2376,
      "comfort": 2377,
      "serv": 2378,
      "focus": 2379,
      "##gin": 2380,
      "##ho": 2381,
      "##cks": 2382,
      "##cle": 2383,
      "loss": 2384,
      "smo": 2385,
      "intern": 2386,
      "lou": 2387,
      "##easant": 2388,
      "entire": 2389,
      "effect": 2390,
      "kick": 2391,
      "dem": 2392,
      "unpl": 2393,
      "walked": 2394,
      "meeting": 2395,
      "daz": 2396,
      "##vy": 2397,
      "##ison": 2398,
      "alive": 2399,
      "simple": 2400,
      "despite": 2401,
      "rebellious": 2402,
      "terrific": 2403,
      "bull": 2404,
      "capt": 2405,
      "mostly": 2406,
      "delight": 2407,
      "inde": 2408,
      "ahead": 2409,
      "lord": 2410,
      "sever": 2411,
      "takes": 2412,
      "study": 2413,
      "personally": 2414,
      "lots": 2415,
      "voice": 2416,
      "twenty": 2417,
      "##iver": 2418,
      "##ric": 2419,
      "##ses": 2420,
      "##usioned": 2421,
      "entertain": 2422,
      "brain": 2423,
      "learned": 2424,
      "street": 2425,
      "mouth": 2426,
      "known": 2427,
      "artistic": 2428,
      "recently": 2429,
      "bene": 2430,
      "##illusioned": 2431,
      "disillusioned": 2432,
      "turned": 2433,
      "bes": 2434,
      "seas": 2435,
      "##line": 2436,
      "##form": 2437,
      "style": 2438,
      "quiet": 2439,
      "stubb": 2440,
      "carry": 2441,
      "wearing": 2442,
      "lady": 2443,
      "stomach": 2444,
      "unpleasant": 2445,
      "stubborn": 2446,
      "##ove": 2447,
      "##stem": 2448,
      "themselves": 2449,
      "dear": 2450,
      "##ination": 2451,
      "community": 2452,
      "learning": 2453,
      "students": 2454,
      "sar": 2455,
      "upon": 2456,
      "system": 2457,
      "recei": 2458,
      "land": 2459,
      "film": 2460,
      "meant": 2461,
      "ground": 2462,
      "listening": 2463,
      "cross": 2464,
      "dest": 2465,
      "fit": 2466,
      "gotten": 2467,
      "leg": 2468,
      "anger": 2469,
      "huh": 2470,
      "quickly": 2471,
      "anybody": 2472,
      "##ific": 2473,
      "extra": 2474,
      "easily": 2475,
      "appreciative": 2476,
      "dazed": 2477,
      "##hood": 2478,
      "##ase": 2479,
      "stick": 2480,
      "##ram": 2481,
      "obvious": 2482,
      "losing": 2483,
      "missing": 2484,
      "mur": 2485,
      "foot": 2486,
      "rain": 2487,
      "ste": 2488,
      "discus": 2489,
      "listless": 2490,
      "fond": 2491,
      "crying": 2492,
      "difficult": 2493,
      "##que": 2494,
      "##erc": 2495,
      "evening": 2496,
      "prov": 2497,
      "compass": 2498,
      "across": 2499,
      "scen": 2500,
      "pressure": 2501,
      "forgive": 2502,
      "conversation": 2503,
      "weak": 2504,
      "aff": 2505,
      "pictures": 2506,
      "stopped": 2507,
      "cy": 2508,
      "##aces": 2509,
      "loc": 2510,
      "generally": 2511,
      "##umph": 2512,
      "##velop": 2513,
      "character": 2514,
      "pat": 2515,
      "finding": 2516,
      "doesn": 2517,
      "deeply": 2518,
      "middle": 2519,
      "##uce": 2520,
      "##ffe": 2521,
      "beha": 2522,
      "##ency": 2523,
      "memor": 2524,
      "drop": 2525,
      "wondering": 2526,
      "strongly": 2527,
      "appreciate": 2528,
      "choose": 2529,
      "information": 2530,
      "sr": 2531,
      "##cl": 2532,
      "##orse": 2533,
      "##ression": 2534,
      "glam": 2535,
      "mrs": 2536,
      "avoid": 2537,
      "accompl": 2538,
      "ride": 2539,
      "##pital": 2540,
      "bey": 2541,
      "stuck": 2542,
      "unless": 2543,
      "##ants": 2544,
      "drea": 2545,
      "triumph": 2546,
      "major": 2547,
      "auth": 2548,
      "##amp": 2549,
      "smell": 2550,
      "comment": 2551,
      "died": 2552,
      "appro": 2553,
      "attack": 2554,
      "interested": 2555,
      "seriously": 2556,
      "physically": 2557,
      "##ett": 2558,
      "main": 2559,
      "##epy": 2560,
      "complain": 2561,
      "decision": 2562,
      "beyond": 2563,
      "bott": 2564,
      "cele": 2565,
      "src": 2566,
      "##ural": 2567,
      "##tern": 2568,
      "reasons": 2569,
      "choice": 2570,
      "##fer": 2571,
      "ben": 2572,
      "##earch": 2573,
      "exist": 2574,
      "bitch": 2575,
      "##ogra": 2576,
      "travel": 2577,
      "frantic": 2578,
      "issues": 2579,
      "fix": 2580,
      "##dam": 2581,
      "##ony": 2582,
      "anim": 2583,
      "##rib": 2584,
      "exerc": 2585,
      "everyday": 2586,
      "works": 2587,
      "arms": 2588,
      "draw": 2589,
      "report": 2590,
      "utter": 2591,
      "suspicious": 2592,
      "hy": 2593,
      "##iff": 2594,
      "##verse": 2595,
      "frank": 2596,
      "spo": 2597,
      "paper": 2598,
      "helping": 2599,
      "desire": 2600,
      "boyfriend": 2601,
      "colle": 2602,
      "non": 2603,
      "dog": 2604,
      "vi": 2605,
      "##unt": 2606,
      "forever": 2607,
      "##ther": 2608,
      "##ational": 2609,
      "difference": 2610,
      "eye": 2611,
      "tar": 2612,
      "stories": 2613,
      "fan": 2614,
      "sen": 2615,
      "##oc": 2616,
      "##oted": 2617,
      "##rie": 2618,
      "bill": 2619,
      "jump": 2620,
      "area": 2621,
      "appear": 2622,
      "road": 2623,
      "##medi": 2624,
      "allowed": 2625,
      "healthy": 2626,
      "college": 2627,
      "ant": 2628,
      "##icking": 2629,
      "##rage": 2630,
      "##ries": 2631,
      "caught": 2632,
      "fuckin": 2633,
      "complete": 2634,
      "gives": 2635,
      "den": 2636,
      "vide": 2637,
      "##iny": 2638,
      "afterno": 2639,
      "ended": 2640,
      "emotionally": 2641,
      "purp": 2642,
      "##iety": 2643,
      "dro": 2644,
      "dance": 2645,
      "amused": 2646,
      "##empt": 2647,
      "comput": 2648,
      "guilt": 2649,
      "possibly": 2650,
      "typ": 2651,
      "ske": 2652,
      "title": 2653,
      "immedi": 2654,
      "##ails": 2655,
      "sounds": 2656,
      "burn": 2657,
      "mix": 2658,
      "earl": 2659,
      "tears": 2660,
      "social": 2661,
      "##itten": 2662,
      "##hibited": 2663,
      "triumphant": 2664,
      "lif": 2665,
      "wrote": 2666,
      "remorse": 2667,
      "hoping": 2668,
      "crap": 2669,
      "sleeping": 2670,
      "tech": 2671,
      "police": 2672,
      "celebr": 2673,
      "squ": 2674,
      "whos": 2675,
      "##ogn": 2676,
      "camp": 2677,
      "happening": 2678,
      "bored": 2679,
      "till": 2680,
      "##ume": 2681,
      "aware": 2682,
      "keen": 2683,
      "roll": 2684,
      "distressed": 2685,
      "opin": 2686,
      "odd": 2687,
      "theyll": 2688,
      "save": 2689,
      "##ledge": 2690,
      "dollars": 2691,
      "hung": 2692,
      "##iding": 2693,
      "offer": 2694,
      "tragic": 2695,
      "photos": 2696,
      "##ser": 2697,
      "##gra": 2698,
      "##ror": 2699,
      "comments": 2700,
      "##ibility": 2701,
      "recogn": 2702,
      "nature": 2703,
      "hist": 2704,
      "##spect": 2705,
      "##ruct": 2706,
      "organ": 2707,
      "belong": 2708,
      "proper": 2709,
      "afternoon": 2710,
      "date": 2711,
      "##ified": 2712,
      "ship": 2713,
      "##elling": 2714,
      "happiness": 2715,
      "apolog": 2716,
      "mention": 2717,
      "discuss": 2718,
      "hos": 2719,
      "psy": 2720,
      "tur": 2721,
      "##eth": 2722,
      "couldn": 2723,
      "usual": 2724,
      "shall": 2725,
      "calling": 2726,
      "skept": 2727,
      "fill": 2728,
      "link": 2729,
      "sam": 2730,
      "inhibited": 2731,
      "weather": 2732,
      "ideas": 2733,
      "grace": 2734,
      "posts": 2735,
      "blogging": 2736,
      "##lo": 2737,
      "##fit": 2738,
      "assa": 2739,
      "miles": 2740,
      "season": 2741,
      "goddam": 2742,
      "handle": 2743,
      "submiss": 2744,
      "connection": 2745,
      "window": 2746,
      "becoming": 2747,
      "delighted": 2748,
      "psych": 2749,
      "pan": 2750,
      "requ": 2751,
      "bag": 2752,
      "spot": 2753,
      "letting": 2754,
      "surround": 2755,
      "spending": 2756,
      "skeptical": 2757,
      "##ians": 2758,
      "##ingly": 2759,
      "##ature": 2760,
      "stri": 2761,
      "yours": 2762,
      "develop": 2763,
      "deserve": 2764,
      "cook": 2765,
      "ge": 2766,
      "##ued": 2767,
      "##nto": 2768,
      "img": 2769,
      "weepy": 2770,
      "boss": 2771,
      "rock": 2772,
      "create": 2773,
      "dreams": 2774,
      "##ds": 2775,
      "feed": 2776,
      "lim": 2777,
      "##une": 2778,
      "blow": 2779,
      "box": 2780,
      "flow": 2781,
      "sadness": 2782,
      "lunch": 2783,
      "##cis": 2784,
      "##ives": 2785,
      "coffe": 2786,
      "huge": 2787,
      "bal": 2788,
      "mir": 2789,
      "thinks": 2790,
      "offic": 2791,
      "girlfriend": 2792,
      "presence": 2793,
      "expected": 2794,
      "progress": 2795,
      "push": 2796,
      "##we": 2797,
      "stun": 2798,
      "fault": 2799,
      "attempt": 2800,
      "motiv": 2801,
      "achie": 2802,
      "computer": 2803,
      "fully": 2804,
      "tv": 2805,
      "neglect": 2806,
      "direct": 2807,
      "gain": 2808,
      "race": 2809,
      "##cum": 2810,
      "ability": 2811,
      "excuse": 2812,
      "doubtful": 2813,
      "hostile": 2814,
      "target": 2815,
      "hospital": 2816,
      "bought": 2817,
      "var": 2818,
      "cap": 2819,
      "leaves": 2820,
      "train": 2821,
      "##igned": 2822,
      "coffee": 2823,
      "aud": 2824,
      "dig": 2825,
      "##now": 2826,
      "##ak": 2827,
      "##ution": 2828,
      "cost": 2829,
      "##ngth": 2830,
      "interesting": 2831,
      "negative": 2832,
      "describe": 2833,
      "cult": 2834,
      "laz": 2835,
      "##ience": 2836,
      "##time": 2837,
      "itll": 2838,
      "places": 2839,
      "table": 2840,
      "pack": 2841,
      "daily": 2842,
      "strength": 2843,
      "##ina": 2844,
      "##lex": 2845,
      "grouchy": 2846,
      "issue": 2847,
      "service": 2848,
      "er": 2849,
      "eight": 2850,
      "liter": 2851,
      "##ball": 2852,
      "##ilar": 2853,
      "sand": 2854,
      "keeping": 2855,
      "##ivity": 2856,
      "path": 2857,
      "above": 2858,
      "band": 2859,
      "##ages": 2860,
      "gracious": 2861,
      "involved": 2862,
      "bank": 2863,
      "port": 2864,
      "##ently": 2865,
      "necess": 2866,
      "written": 2867,
      "training": 2868,
      "career": 2869,
      "birthday": 2870,
      "##ograph": 2871,
      "submissive": 2872,
      "dun": 2873,
      "ep": 2874,
      "##bor": 2875,
      "mass": 2876,
      "##ilities": 2877,
      "seemed": 2878,
      "lang": 2879,
      "sna": 2880,
      "noticed": 2881,
      "##ended": 2882,
      "prin": 2883,
      "green": 2884,
      "several": 2885,
      "memories": 2886,
      "bath": 2887,
      "card": 2888,
      "fell": 2889,
      "##od": 2890,
      "subject": 2891,
      "broken": 2892,
      "##ym": 2893,
      "whom": 2894,
      "soft": 2895,
      "chest": 2896,
      "perform": 2897,
      "attract": 2898,
      "remorseful": 2899,
      "##work": 2900,
      "##ns": 2901,
      "##ru": 2902,
      "discover": 2903,
      "techn": 2904,
      "assaulted": 2905,
      "##sc": 2906,
      "shop": 2907,
      "helped": 2908,
      "hello": 2909,
      "promise": 2910,
      "society": 2911,
      "murder": 2912,
      "purpose": 2913,
      "immediately": 2914,
      "nur": 2915,
      "##ler": 2916,
      "anywhere": 2917,
      "itself": 2918,
      "gods": 2919,
      "utterly": 2920,
      "arg": 2921,
      "##izing": 2922,
      "sett": 2923,
      "profession": 2924,
      "onto": 2925,
      "lik": 2926,
      "fort": 2927,
      "##ches": 2928,
      "notice": 2929,
      "drug": 2930,
      "readers": 2931,
      "##bles": 2932,
      "older": 2933,
      "silly": 2934,
      "king": 2935,
      "##ik": 2936,
      "lived": 2937,
      "##ication": 2938,
      "##vern": 2939,
      "reality": 2940,
      "grad": 2941,
      "fif": 2942,
      "##ey": 2943,
      "imm": 2944,
      "lol": 2945,
      "strang": 2946,
      "shoes": 2947,
      "invest": 2948,
      "president": 2949,
      "standing": 2950,
      "falling": 2951,
      "includ": 2952,
      "behavi": 2953,
      "hide": 2954,
      "none": 2955,
      "##lish": 2956,
      "##riage": 2957,
      "ord": 2958,
      "taste": 2959,
      "##acent": 2960,
      "perio": 2961,
      "glass": 2962,
      "badly": 2963,
      "playful": 2964,
      "anxiety": 2965,
      "characters": 2966,
      "vac": 2967,
      "##bers": 2968,
      "##itive": 2969,
      "educ": 2970,
      "winter": 2971,
      "changed": 2972,
      "glamorous": 2973,
      "##raught": 2974,
      "fresh": 2975,
      "blue": 2976,
      "talked": 2977,
      "distraught": 2978,
      "charming": 2979,
      "##airs": 2980,
      "idiotic": 2981,
      "million": 2982,
      "compassionate": 2983,
      "stunned": 2984,
      "ori": 2985,
      "##gant": 2986,
      "##aly": 2987,
      "govern": 2988,
      "hateful": 2989,
      "fairly": 2990,
      "favorite": 2991,
      "ris": 2992,
      "desper": 2993,
      "beauty": 2994,
      "complacent": 2995,
      "occas": 2996,
      "pregnant": 2997,
      "exercise": 2998,
      "honey": 2999,
      "shi": 3000,
      "quit": 3001,
      "position": 3002,
      "polit": 3003,
      "boun": 3004,
      "fly": 3005,
      "##res": 3006,
      "betray": 3007,
      "passed": 3008,
      "buck": 3009,
      "cust": 3010,
      "##ially": 3011,
      "##ley": 3012,
      "##ality": 3013,
      "mov": 3014,
      "action": 3015,
      "remain": 3016,
      "##wards": 3017,
      "devoted": 3018,
      "collect": 3019,
      "approach": 3020,
      "langu": 3021,
      "ble": 3022,
      "fellow": 3023,
      "gig": 3024,
      "##sk": 3025,
      "lively": 3026,
      "legs": 3027,
      "enjoyed": 3028,
      "text": 3029,
      "further": 3030,
      "bunch": 3031,
      "ran": 3032,
      "rout": 3033,
      "round": 3034,
      "##ts": 3035,
      "##ots": 3036,
      "unf": 3037,
      "contact": 3038,
      "regular": 3039,
      "enjoying": 3040,
      "physical": 3041,
      "experiences": 3042,
      "gar": 3043,
      "nut": 3044,
      "york": 3045,
      "##col": 3046,
      "##iam": 3047,
      "neigh": 3048,
      "sugg": 3049,
      "##ending": 3050,
      "army": 3051,
      "struggle": 3052,
      "american": 3053,
      "movies": 3054,
      "suggest": 3055,
      "fu": 3056,
      "tick": 3057,
      "ver": 3058,
      "moved": 3059,
      "color": 3060,
      "besides": 3061,
      "history": 3062,
      "##me": 3063,
      "##eap": 3064,
      "knowledge": 3065,
      "env": 3066,
      "friendship": 3067,
      "watched": 3068,
      "author": 3069,
      "earlier": 3070,
      "mart": 3071,
      "pal": 3072,
      "teen": 3073,
      "agree": 3074,
      "##ips": 3075,
      "posting": 3076,
      "##ify": 3077,
      "commun": 3078,
      "english": 3079,
      "holiday": 3080,
      "received": 3081,
      "obviously": 3082,
      "aut": 3083,
      "##ences": 3084,
      "##otic": 3085,
      "suck": 3086,
      "managed": 3087,
      "arr": 3088,
      "message": 3089,
      "growing": 3090,
      "slowly": 3091,
      "field": 3092,
      "games": 3093,
      "ought": 3094,
      "##zz": 3095,
      "##esome": 3096,
      "haven": 3097,
      "among": 3098,
      "account": 3099,
      "marriage": 3100,
      "##arent": 3101,
      "satur": 3102,
      "cat": 3103,
      "hi": 3104,
      "##nal": 3105,
      "##ale": 3106,
      "##aim": 3107,
      "##xious": 3108,
      "##itter": 3109,
      "store": 3110,
      "##ope": 3111,
      "repl": 3112,
      "repe": 3113,
      "##iling": 3114,
      "##ushing": 3115,
      "werent": 3116,
      "journey": 3117,
      "bear": 3118,
      "je": 3119,
      "tough": 3120,
      "##men": 3121,
      "rob": 3122,
      "shows": 3123,
      "##noxious": 3124,
      "regard": 3125,
      "obnoxious": 3126,
      "events": 3127,
      "video": 3128,
      "batt": 3129,
      "fol": 3130,
      "vers": 3131,
      "##uff": 3132,
      "third": 3133,
      "##era": 3134,
      "sharing": 3135,
      "heartless": 3136,
      "bud": 3137,
      "coo": 3138,
      "neck": 3139,
      "##itted": 3140,
      "willing": 3141,
      "impro": 3142,
      "term": 3143,
      "pound": 3144,
      "##av": 3145,
      "sunday": 3146,
      "upt": 3147,
      "##ief": 3148,
      "track": 3149,
      "direction": 3150,
      "born": 3151,
      "patient": 3152,
      "tight": 3153,
      "##iant": 3154,
      "review": 3155,
      "artic": 3156,
      "holding": 3157,
      "nearly": 3158,
      "freed": 3159,
      "entertained": 3160,
      "force": 3161,
      "gold": 3162,
      "alright": 3163,
      "chick": 3164,
      "partner": 3165,
      "hed": 3166,
      "hers": 3167,
      "oper": 3168,
      "##wise": 3169,
      "likes": 3170,
      "blamed": 3171,
      "swear": 3172,
      "decide": 3173,
      "facebook": 3174,
      "meaning": 3175,
      "floor": 3176,
      "gut": 3177,
      "##ker": 3178,
      "##key": 3179,
      "##pper": 3180,
      "##aster": 3181,
      "##ploy": 3182,
      "staying": 3183,
      "failure": 3184,
      "judge": 3185,
      "large": 3186,
      "hungry": 3187,
      "crow": 3188,
      "lying": 3189,
      "##mon": 3190,
      "note": 3191,
      "loves": 3192,
      "##uss": 3193,
      "hearing": 3194,
      "confidence": 3195,
      "ridic": 3196,
      "sociable": 3197,
      "saturday": 3198,
      "match": 3199,
      "size": 3200,
      "##acy": 3201,
      "##onment": 3202,
      "##ancy": 3203,
      "shamed": 3204,
      "hardly": 3205,
      "terribly": 3206,
      "understanding": 3207,
      "stronger": 3208,
      "victimized": 3209,
      "lazy": 3210,
      "sea": 3211,
      "wit": 3212,
      "##ously": 3213,
      "##using": 3214,
      "wouldn": 3215,
      "heres": 3216,
      "letter": 3217,
      "depart": 3218,
      "univers": 3219,
      "practice": 3220,
      "mum": 3221,
      "sci": 3222,
      "west": 3223,
      "##vis": 3224,
      "tad": 3225,
      "entir": 3226,
      "overwhelming": 3227,
      "perfectly": 3228,
      "driving": 3229,
      "picked": 3230,
      "scream": 3231,
      "local": 3232,
      "meal": 3233,
      "##ipped": 3234,
      "##arily": 3235,
      "base": 3236,
      "join": 3237,
      "jolly": 3238,
      "welcome": 3239,
      "changes": 3240,
      "elegant": 3241,
      "##reas": 3242,
      "wher": 3243,
      "sold": 3244,
      "##oof": 3245,
      "##ules": 3246,
      "became": 3247,
      "theyve": 3248,
      "ident": 3249,
      "situations": 3250,
      "accident": 3251,
      "similar": 3252,
      "goddamn": 3253,
      "envir": 3254,
      "entirely": 3255,
      "bi": 3256,
      "dar": 3257,
      "sil": 3258,
      "##iving": 3259,
      "thro": 3260,
      "##leep": 3261,
      "##ury": 3262,
      "cast": 3263,
      "headach": 3264,
      "ray": 3265,
      "online": 3266,
      "mach": 3267,
      "alar": 3268,
      "club": 3269,
      "awesome": 3270,
      "relig": 3271,
      "##ology": 3272,
      "wedding": 3273,
      "apartment": 3274,
      "building": 3275,
      "fingers": 3276,
      "sarc": 3277,
      "occasion": 3278,
      "freedom": 3279,
      "ul": 3280,
      "##uit": 3281,
      "##ises": 3282,
      "friday": 3283,
      "tells": 3284,
      "arm": 3285,
      "genu": 3286,
      "sky": 3287,
      "drinking": 3288,
      "evil": 3289,
      "internet": 3290,
      "custom": 3291,
      "pin": 3292,
      "##ium": 3293,
      "asleep": 3294,
      "##ulf": 3295,
      "worst": 3296,
      "outraged": 3297,
      "mod": 3298,
      "screw": 3299,
      "##athy": 3300,
      "shake": 3301,
      "barely": 3302,
      "fifty": 3303,
      "cong": 3304,
      "ice": 3305,
      "##con": 3306,
      "##oss": 3307,
      "cos": 3308,
      "contrib": 3309,
      "design": 3310,
      "hotel": 3311,
      "truthful": 3312,
      "normally": 3313,
      "teacher": 3314,
      "memory": 3315,
      "dut": 3316,
      "##light": 3317,
      "##por": 3318,
      "##ode": 3319,
      "##ese": 3320,
      "##isf": 3321,
      "suit": 3322,
      "exper": 3323,
      "comb": 3324,
      "acting": 3325,
      "series": 3326,
      "shopping": 3327,
      "heaven": 3328,
      "language": 3329,
      "##bel": 3330,
      "image": 3331,
      "##rod": 3332,
      "otherwise": 3333,
      "##shit": 3334,
      "nights": 3335,
      "##ivid": 3336,
      "relationships": 3337,
      "members": 3338,
      "period": 3339,
      "uptight": 3340,
      "sell": 3341,
      "reci": 3342,
      "##usion": 3343,
      "deg": 3344,
      "blame": 3345,
      "clim": 3346,
      "terms": 3347,
      "forgot": 3348,
      "figured": 3349,
      "captain": 3350,
      "scene": 3351,
      "cup": 3352,
      "##ex": 3353,
      "##gar": 3354,
      "haha": 3355,
      "william": 3356,
      "page": 3357,
      "drunk": 3358,
      "key": 3359,
      "swim": 3360,
      "mission": 3361,
      "mentioned": 3362,
      "ridiculous": 3363,
      "##vated": 3364,
      "thirty": 3365,
      "##ening": 3366,
      "##ilt": 3367,
      "held": 3368,
      "##bling": 3369,
      "created": 3370,
      "currently": 3371,
      "results": 3372,
      "challenge": 3373,
      "likely": 3374,
      "dick": 3375,
      "ease": 3376,
      "jer": 3377,
      "jim": 3378,
      "##ior": 3379,
      "##lin": 3380,
      "sta": 3381,
      "encou": 3382,
      "shower": 3383,
      "##ground": 3384,
      "##oph": 3385,
      "saf": 3386,
      "pap": 3387,
      "deliver": 3388,
      "speci": 3389,
      "eventually": 3390,
      "finger": 3391,
      "urge": 3392,
      "cow": 3393,
      "ju": 3394,
      "mothers": 3395,
      "tiny": 3396,
      "##bit": 3397,
      "##back": 3398,
      "##ners": 3399,
      "##ald": 3400,
      "react": 3401,
      "mag": 3402,
      "plus": 3403,
      "paid": 3404,
      "resigned": 3405,
      "##ization": 3406,
      "mentally": 3407,
      "pieces": 3408,
      "struggling": 3409,
      "concerned": 3410,
      "origin": 3411,
      "equ": 3412,
      "rand": 3413,
      "vol": 3414,
      "##for": 3415,
      "wast": 3416,
      "##ires": 3417,
      "##uses": 3418,
      "keeps": 3419,
      "reflect": 3420,
      "daddy": 3421,
      "following": 3422,
      "environment": 3423,
      "boo": 3424,
      "fans": 3425,
      "van": 3426,
      "wra": 3427,
      "aspect": 3428,
      "##thy": 3429,
      "sake": 3430,
      "manage": 3431,
      "starts": 3432,
      "throughout": 3433,
      "court": 3434,
      "songs": 3435,
      "sarcastic": 3436,
      "lu": 3437,
      "##ule": 3438,
      "##vert": 3439,
      "hadnt": 3440,
      "treas": 3441,
      "parts": 3442,
      "actions": 3443,
      "attitude": 3444,
      "paint": 3445,
      "##iliar": 3446,
      "natural": 3447,
      "heavy": 3448,
      "literally": 3449,
      "mount": 3450,
      "vicious": 3451,
      "##ai": 3452,
      "##ores": 3453,
      "wash": 3454,
      "aband": 3455,
      "ate": 3456,
      "cand": 3457,
      "whose": 3458,
      "prefer": 3459,
      "twice": 3460,
      "harry": 3461,
      "harder": 3462,
      "fighting": 3463,
      "##ability": 3464,
      "furious": 3465,
      "indecis": 3466,
      "bird": 3467,
      "sour": 3468,
      "##par": 3469,
      "fore": 3470,
      "timid": 3471,
      "hasnt": 3472,
      "compet": 3473,
      "played": 3474,
      "pleasure": 3475,
      "##bbed": 3476,
      "treated": 3477,
      "mistake": 3478,
      "potent": 3479,
      "##omb": 3480,
      "##str": 3481,
      "##ched": 3482,
      "##ceed": 3483,
      "reco": 3484,
      "bast": 3485,
      "aggra": 3486,
      "workout": 3487,
      "cred": 3488,
      "command": 3489,
      "dav": 3490,
      "journal": 3491,
      "opinion": 3492,
      "culture": 3493,
      "indecisive": 3494,
      "und": 3495,
      "##cles": 3496,
      "##port": 3497,
      "stage": 3498,
      "neither": 3499,
      "heat": 3500,
      "plans": 3501,
      "previous": 3502,
      "mary": 3503,
      "##centr": 3504,
      "repressed": 3505,
      "bullshit": 3506,
      "epis": 3507,
      "gard": 3508,
      "mal": 3509,
      "names": 3510,
      "block": 3511,
      "disl": 3512,
      "activ": 3513,
      "appoint": 3514,
      "##ples": 3515,
      "interview": 3516,
      "##pres": 3517,
      "plane": 3518,
      "ult": 3519,
      "david": 3520,
      "vir": 3521,
      "##ole": 3522,
      "##fast": 3523,
      "isn": 3524,
      "neur": 3525,
      "satisf": 3526,
      "total": 3527,
      "photograph": 3528,
      "corner": 3529,
      "##rupt": 3530,
      "government": 3531,
      "bright": 3532,
      "##bby": 3533,
      "##ls": 3534,
      "hall": 3535,
      "monday": 3536,
      "helps": 3537,
      "trick": 3538,
      "appl": 3539,
      "board": 3540,
      "hopefully": 3541,
      "##comm": 3542,
      "cru": 3543,
      "honor": 3544,
      "posted": 3545,
      "common": 3546,
      "universe": 3547,
      "decisions": 3548,
      "considerate": 3549,
      "destro": 3550,
      "kitch": 3551,
      "whine": 3552,
      "seven": 3553,
      "##aint": 3554,
      "##iled": 3555,
      "spring": 3556,
      "pair": 3557,
      "price": 3558,
      "brown": 3559,
      "depression": 3560,
      "dealing": 3561,
      "loud": 3562,
      "accomplish": 3563,
      "herself": 3564,
      "nic": 3565,
      "pool": 3566,
      "##inary": 3567,
      "##eng": 3568,
      "shell": 3569,
      "suspect": 3570,
      "bab": 3571,
      "hero": 3572,
      "concentr": 3573,
      "speaking": 3574,
      "apparent": 3575,
      "final": 3576,
      "blogs": 3577,
      "hunt": 3578,
      "energ": 3579,
      "individ": 3580,
      "inspir": 3581,
      "photo": 3582,
      "pulled": 3583,
      "advice": 3584,
      "##rief": 3585,
      "betrayed": 3586,
      "aggravated": 3587,
      "san": 3588,
      "vent": 3589,
      "##nes": 3590,
      "##onic": 3591,
      "##rect": 3592,
      "##ayed": 3593,
      "goal": 3594,
      "claim": 3595,
      "sched": 3596,
      "sorrow": 3597,
      "student": 3598,
      "vacation": 3599,
      "university": 3600,
      "kitchen": 3601,
      "dry": 3602,
      "shirt": 3603,
      "upd": 3604,
      "contract": 3605,
      "grat": 3606,
      "easier": 3607,
      "recall": 3608,
      "edge": 3609,
      "pregnancy": 3610,
      "fulf": 3611,
      "gym": 3612,
      "ly": 3613,
      "##wor": 3614,
      "shame": 3615,
      "##urity": 3616,
      "alb": 3617,
      "##ils": 3618,
      "prove": 3619,
      "bond": 3620,
      "calls": 3621,
      "showing": 3622,
      "considering": 3623,
      "based": 3624,
      "george": 3625,
      "jeff": 3626,
      "department": 3627,
      "random": 3628,
      "filled": 3629,
      "hat": 3630,
      "wild": 3631,
      "##fl": 3632,
      "tom": 3633,
      "inj": 3634,
      "waste": 3635,
      "awake": 3636,
      "diet": 3637,
      "##icted": 3638,
      "##iction": 3639,
      "disappear": 3640,
      "breakfast": 3641,
      "program": 3642,
      "america": 3643,
      "affectionate": 3644,
      "bouncy": 3645,
      "individual": 3646,
      "max": 3647,
      "marry": 3648,
      "respond": 3649,
      "rules": 3650,
      "##hin": 3651,
      "##idge": 3652,
      "repres": 3653,
      "passion": 3654,
      "increas": 3655,
      "buying": 3656,
      "handsome": 3657,
      "clearly": 3658,
      "mater": 3659,
      "##head": 3660,
      "##onse": 3661,
      "##imin": 3662,
      "lock": 3663,
      "peoples": 3664,
      "##gged": 3665,
      "grown": 3666,
      "professional": 3667,
      "folks": 3668,
      "nine": 3669,
      "sore": 3670,
      "tree": 3671,
      "wood": 3672,
      "##oned": 3673,
      "##urs": 3674,
      "sem": 3675,
      "freak": 3676,
      "spite": 3677,
      "enraged": 3678,
      "adult": 3679,
      "afterwards": 3680,
      "slut": 3681,
      "##gging": 3682,
      "morose": 3683,
      "sweat": 3684,
      "brand": 3685,
      "highly": 3686,
      "teaching": 3687,
      "forgotten": 3688,
      "answers": 3689,
      "viol": 3690,
      "goo": 3691,
      "pity": 3692,
      "ring": 3693,
      "sink": 3694,
      "search": 3695,
      "waking": 3696,
      "stat": 3697,
      "chose": 3698,
      "fash": 3699,
      "client": 3700,
      "phil": 3701,
      "stayed": 3702,
      "products": 3703,
      "younger": 3704,
      "media": 3705,
      "projects": 3706,
      "north": 3707,
      "balance": 3708,
      "throat": 3709,
      "dying": 3710,
      "##rop": 3711,
      "unk": 3712,
      "ourselves": 3713,
      "hurts": 3714,
      "commit": 3715,
      "choices": 3716,
      "circum": 3717,
      "mild": 3718,
      "##old": 3719,
      "assh": 3720,
      "separ": 3721,
      "confess": 3722,
      "familiar": 3723,
      "crit": 3724,
      "excite": 3725,
      "hug": 3726,
      "classes": 3727,
      "peter": 3728,
      "responsibility": 3729,
      "prepared": 3730,
      "radio": 3731,
      "indeed": 3732,
      "whiney": 3733,
      "bike": 3734,
      "gt": 3735,
      "rick": 3736,
      "tour": 3737,
      "wine": 3738,
      "##night": 3739,
      "cash": 3740,
      "recomm": 3741,
      "##ems": 3742,
      "imposs": 3743,
      "slept": 3744,
      "sym": 3745,
      "infl": 3746,
      "basically": 3747,
      "hanging": 3748,
      "##cape": 3749,
      "battle": 3750,
      "obl": 3751,
      "##akes": 3752,
      "##inct": 3753,
      "##oms": 3754,
      "whe": 3755,
      "novel": 3756,
      "employ": 3757,
      "##lenty": 3758,
      "##bbing": 3759,
      "surprise": 3760,
      "fift": 3761,
      "graceful": 3762,
      "circumst": 3763,
      "ber": 3764,
      "cu": 3765,
      "pow": 3766,
      "##he": 3767,
      "##vo": 3768,
      "haro": 3769,
      "##ston": 3770,
      "station": 3771,
      "height": 3772,
      "##ilies": 3773,
      "defect": 3774,
      "unable": 3775,
      "##osen": 3776,
      "depend": 3777,
      "pained": 3778,
      "hurting": 3779,
      "planning": 3780,
      "embra": 3781,
      "sexual": 3782,
      "private": 3783,
      "response": 3784,
      "condition": 3785,
      "neglectful": 3786,
      "excitement": 3787,
      "pig": 3788,
      "plenty": 3789,
      "sel": 3790,
      "##ech": 3791,
      "knock": 3792,
      "goals": 3793,
      "everywhere": 3794,
      "writ": 3795,
      "writer": 3796,
      "research": 3797,
      "twitter": 3798,
      "##ension": 3799,
      "hole": 3800,
      "belief": 3801,
      "assist": 3802,
      "killing": 3803,
      "details": 3804,
      "allowing": 3805,
      "snow": 3806,
      "experienced": 3807,
      "##going": 3808,
      "audience": 3809,
      "wheres": 3810,
      "elect": 3811,
      "patter": 3812,
      "sight": 3813,
      "##ees": 3814,
      "##iest": 3815,
      "##gle": 3816,
      "##hh": 3817,
      "##aced": 3818,
      "##val": 3819,
      "##eds": 3820,
      "##ows": 3821,
      "lips": 3822,
      "##ider": 3823,
      "maint": 3824,
      "chief": 3825,
      "spl": 3826,
      "therefore": 3827,
      "quar": 3828,
      "actual": 3829,
      "##eans": 3830,
      "distance": 3831,
      "skills": 3832,
      "admired": 3833,
      "bringing": 3834,
      "version": 3835,
      "witness": 3836,
      "recover": 3837,
      "antic": 3838,
      "fish": 3839,
      "lines": 3840,
      "sau": 3841,
      "##min": 3842,
      "##uing": 3843,
      "shar": 3844,
      "##elled": 3845,
      "##anted": 3846,
      "guest": 3847,
      "truck": 3848,
      "brit": 3849,
      "brothers": 3850,
      "##aging": 3851,
      "##athers": 3852,
      "runs": 3853,
      "camera": 3854,
      "artist": 3855,
      "ignore": 3856,
      "sensitive": 3857,
      "harold": 3858,
      "ban": 3859,
      "nar": 3860,
      "vag": 3861,
      "##mber": 3862,
      "##den": 3863,
      "reaction": 3864,
      "master": 3865,
      "overly": 3866,
      "pride": 3867,
      "arri": 3868,
      "desk": 3869,
      "serve": 3870,
      "conscious": 3871,
      "value": 3872,
      "park": 3873,
      "crew": 3874,
      "changing": 3875,
      "closer": 3876,
      "market": 3877,
      "animals": 3878,
      "destroy": 3879,
      "du": 3880,
      "nig": 3881,
      "##ec": 3882,
      "outfit": 3883,
      "nose": 3884,
      "introd": 3885,
      "release": 3886,
      "role": 3887,
      "ending": 3888,
      "families": 3889,
      "finan": 3890,
      "beach": 3891,
      "farm": 3892,
      "fearless": 3893,
      "address": 3894,
      "studying": 3895,
      "provide": 3896,
      "neighbor": 3897,
      "anticip": 3898,
      "bri": 3899,
      "pink": 3900,
      "pump": 3901,
      "roy": 3902,
      "##bur": 3903,
      "##here": 3904,
      "##abl": 3905,
      "##dies": 3906,
      "##nted": 3907,
      "chem": 3908,
      "chosen": 3909,
      "deb": 3910,
      "sport": 3911,
      "pretend": 3912,
      "##action": 3913,
      "bigger": 3914,
      "added": 3915,
      "images": 3916,
      "correct": 3917,
      "ache": 3918,
      "turning": 3919,
      "behavior": 3920,
      "ultim": 3921,
      "gratitude": 3922,
      "impossible": 3923,
      "bow": 3924,
      "bout": 3925,
      "cards": 3926,
      "gam": 3927,
      "yog": 3928,
      "fema": 3929,
      "##ata": 3930,
      "##icated": 3931,
      "sooo": 3932,
      "washing": 3933,
      "chat": 3934,
      "scre": 3935,
      "surv": 3936,
      "therap": 3937,
      "object": 3938,
      "temper": 3939,
      "afford": 3940,
      "cycle": 3941,
      "achieve": 3942,
      "shift": 3943,
      "fashion": 3944,
      "##giving": 3945,
      "##dom": 3946,
      "##inely": 3947,
      "tong": 3948,
      "suic": 3949,
      "chair": 3950,
      "paul": 3951,
      "belly": 3952,
      "flaw": 3953,
      "breathe": 3954,
      "dancing": 3955,
      "effects": 3956,
      "mirror": 3957,
      "duty": 3958,
      "female": 3959,
      "core": 3960,
      "cig": 3961,
      "civ": 3962,
      "fal": 3963,
      "jam": 3964,
      "mc": 3965,
      "net": 3966,
      "##mit": 3967,
      "##hip": 3968,
      "##xic": 3969,
      "stro": 3970,
      "forced": 3971,
      "magic": 3972,
      "sugar": 3973,
      "goodby": 3974,
      "email": 3975,
      "bob": 3976,
      "turns": 3977,
      "grew": 3978,
      "mental": 3979,
      "seconds": 3980,
      "relief": 3981,
      "bathroom": 3982,
      "including": 3983,
      "headache": 3984,
      "album": 3985,
      "fifteen": 3986,
      "fer": 3987,
      "hiding": 3988,
      "rar": 3989,
      "south": 3990,
      "##ndon": 3991,
      "##east": 3992,
      "##rey": 3993,
      "lift": 3994,
      "agre": 3995,
      "joke": 3996,
      "jobs": 3997,
      "charge": 3998,
      "cheer": 3999,
      "matters": 4000,
      "chocol": 4001,
      "reached": 4002,
      "bottom": 4003,
      "dunno": 4004,
      "gradu": 4005,
      "bucks": 4006,
      "nick": 4007,
      "rap": 4008,
      "##under": 4009,
      "steal": 4010,
      "altern": 4011,
      "cancer": 4012,
      "moder": 4013,
      "overall": 4014,
      "breaking": 4015,
      "##easy": 4016,
      "cared": 4017,
      "harm": 4018,
      "holy": 4019,
      "purs": 4020,
      "ladies": 4021,
      "member": 4022,
      "properly": 4023,
      "mountain": 4024,
      "neurotic": 4025,
      "maintain": 4026,
      "rarely": 4027,
      "dating": 4028,
      "dign": 4029,
      "est": 4030,
      "egg": 4031,
      "fren": 4032,
      "##pet": 4033,
      "thus": 4034,
      "stret": 4035,
      "outta": 4036,
      "concept": 4037,
      "blind": 4038,
      "emer": 4039,
      "shape": 4040,
      "horse": 4041,
      "points": 4042,
      "planet": 4043,
      "frequ": 4044,
      "complaining": 4045,
      "mixed": 4046,
      "routine": 4047,
      "staff": 4048,
      "encourage": 4049,
      "episode": 4050,
      "appointment": 4051,
      "defective": 4052,
      "bree": 4053,
      "site": 4054,
      "wound": 4055,
      "##gers": 4056,
      "##ana": 4057,
      "##idays": 4058,
      "butter": 4059,
      "shared": 4060,
      "##olve": 4061,
      "brings": 4062,
      "confl": 4063,
      "surf": 4064,
      "exciting": 4065,
      "detect": 4066,
      "christian": 4067,
      "becomes": 4068,
      "demand": 4069,
      "animal": 4070,
      "senator": 4071,
      "drugs": 4072,
      "education": 4073,
      "crowd": 4074,
      "babies": 4075,
      "rough": 4076,
      "##gest": 4077,
      "fed": 4078,
      "##lend": 4079,
      "stood": 4080,
      "amb": 4081,
      "##illing": 4082,
      "rev": 4083,
      "clou": 4084,
      "scar": 4085,
      "flat": 4086,
      "grade": 4087,
      "painting": 4088,
      "escape": 4089,
      "obser": 4090,
      "##ibilities": 4091,
      "powerful": 4092,
      "laughing": 4093,
      "necessary": 4094,
      "machine": 4095,
      "potential": 4096,
      "activities": 4097,
      "material": 4098,
      "jap": 4099,
      "owe": 4100,
      "##ev": 4101,
      "whis": 4102,
      "lil": 4103,
      "states": 4104,
      "cher": 4105,
      "conc": 4106,
      "##soci": 4107,
      "joe": 4108,
      "trad": 4109,
      "cream": 4110,
      "creating": 4111,
      "medic": 4112,
      "oppos": 4113,
      "teachers": 4114,
      "treatment": 4115,
      "tempt": 4116,
      "responsible": 4117,
      "##load": 4118,
      "giggly": 4119,
      "improve": 4120,
      "represent": 4121,
      "circumstances": 4122,
      "jan": 4123,
      "pil": 4124,
      "trem": 4125,
      "wimp": 4126,
      "##cul": 4127,
      "##ham": 4128,
      "##hol": 4129,
      "##nel": 4130,
      "beer": 4131,
      "init": 4132,
      "##urally": 4133,
      "enem": 4134,
      "dread": 4135,
      "hearts": 4136,
      "lesson": 4137,
      "drag": 4138,
      "worrying": 4139,
      "signific": 4140,
      "risk": 4141,
      "genuinely": 4142,
      "credit": 4143,
      "garden": 4144,
      "enth": 4145,
      "nap": 4146,
      "named": 4147,
      "wid": 4148,
      "##zen": 4149,
      "london": 4150,
      "theyd": 4151,
      "span": 4152,
      "dism": 4153,
      "letters": 4154,
      "##ensely": 4155,
      "grab": 4156,
      "speech": 4157,
      "prior": 4158,
      "expecting": 4159,
      "appreciated": 4160,
      "considered": 4161,
      "receive": 4162,
      "bottle": 4163,
      "surrounded": 4164,
      "alarmed": 4165,
      "tongue": 4166,
      "chocolate": 4167,
      "gay": 4168,
      "##ius": 4169,
      "##zing": 4170,
      "socially": 4171,
      "butt": 4172,
      "button": 4173,
      "seat": 4174,
      "outgoing": 4175,
      "faster": 4176,
      "mans": 4177,
      "below": 4178,
      "believed": 4179,
      "movement": 4180,
      "goodbye": 4181,
      "jew": 4182,
      "ow": 4183,
      "picking": 4184,
      "##sed": 4185,
      "##rick": 4186,
      "##kin": 4187,
      "##stairs": 4188,
      "associ": 4189,
      "saved": 4190,
      "relate": 4191,
      "couch": 4192,
      "##quil": 4193,
      "loose": 4194,
      "moms": 4195,
      "colon": 4196,
      "constant": 4197,
      "security": 4198,
      "statement": 4199,
      "steps": 4200,
      "cops": 4201,
      "strangely": 4202,
      "pounds": 4203,
      "slutty": 4204,
      "cell": 4205,
      "cous": 4206,
      "cried": 4207,
      "eur": 4208,
      "pm": 4209,
      "rush": 4210,
      "wow": 4211,
      "wise": 4212,
      "##zzy": 4213,
      "##atively": 4214,
      "##eaning": 4215,
      "ham": 4216,
      "shed": 4217,
      "cock": 4218,
      "plain": 4219,
      "##ument": 4220,
      "careful": 4221,
      "childhood": 4222,
      "consum": 4223,
      "teeth": 4224,
      "continued": 4225,
      "sexy": 4226,
      "purch": 4227,
      "thanksgiving": 4228,
      "accomplished": 4229,
      "apparently": 4230,
      "asshole": 4231,
      "yoga": 4232,
      "meas": 4233,
      "wis": 4234,
      "##gery": 4235,
      "##uced": 4236,
      "##pes": 4237,
      "##ino": 4238,
      "##itions": 4239,
      "inner": 4240,
      "##usting": 4241,
      "justice": 4242,
      "moon": 4243,
      "access": 4244,
      "cares": 4245,
      "charl": 4246,
      "laid": 4247,
      "double": 4248,
      "paying": 4249,
      "recognize": 4250,
      "capable": 4251,
      "safety": 4252,
      "breeze": 4253,
      "dump": 4254,
      "eq": 4255,
      "pra": 4256,
      "ven": 4257,
      "##mark": 4258,
      "##cr": 4259,
      "##ato": 4260,
      "##itor": 4261,
      "##urance": 4262,
      "caused": 4263,
      "seek": 4264,
      "tran": 4265,
      "compared": 4266,
      "acqu": 4267,
      "perspect": 4268,
      "##board": 4269,
      "hurry": 4270,
      "colour": 4271,
      "incredible": 4272,
      "breathing": 4273,
      "typing": 4274,
      "apologize": 4275,
      "settle": 4276,
      "bastard": 4277,
      "virgin": 4278,
      "recommend": 4279,
      "select": 4280,
      "japan": 4281,
      "hild": 4282,
      "ram": 4283,
      "russ": 4284,
      "zone": 4285,
      "##lock": 4286,
      "##fits": 4287,
      "##ators": 4288,
      "liber": 4289,
      "##icy": 4290,
      "mac": 4291,
      "guard": 4292,
      "quality": 4293,
      "pred": 4294,
      "flight": 4295,
      "passing": 4296,
      "painful": 4297,
      "##order": 4298,
      "opening": 4299,
      "refer": 4300,
      "touched": 4301,
      "personality": 4302,
      "reminded": 4303,
      "walls": 4304,
      "motivated": 4305,
      "chicken": 4306,
      "magaz": 4307,
      "influ": 4308,
      "east": 4309,
      "ger": 4310,
      "hook": 4311,
      "ii": 4312,
      "taught": 4313,
      "tele": 4314,
      "##ga": 4315,
      "##ral": 4316,
      "##ka": 4317,
      "##you": 4318,
      "##do": 4319,
      "##jam": 4320,
      "##sent": 4321,
      "##sequ": 4322,
      "load": 4323,
      "##ested": 4324,
      "manner": 4325,
      "##ption": 4326,
      "background": 4327,
      "arrived": 4328,
      "##pected": 4329,
      "angel": 4330,
      "understood": 4331,
      "greatest": 4332,
      "biggest": 4333,
      "opened": 4334,
      "sorts": 4335,
      "bedroom": 4336,
      "creep": 4337,
      "holidays": 4338,
      "efforts": 4339,
      "performance": 4340,
      "ack": 4341,
      "pants": 4342,
      "##ration": 4343,
      "##days": 4344,
      "doct": 4345,
      "dogs": 4346,
      "shad": 4347,
      "##oop": 4348,
      "decent": 4349,
      "sav": 4350,
      "displ": 4351,
      "needing": 4352,
      "percent": 4353,
      "depth": 4354,
      "foc": 4355,
      "lab": 4356,
      "##swald": 4357,
      "naturally": 4358,
      "warmth": 4359,
      "energized": 4360,
      "french": 4361,
      "cmon": 4362,
      "oswald": 4363,
      "ry": 4364,
      "##bal": 4365,
      "##ipping": 4366,
      "##hy": 4367,
      "##vey": 4368,
      "##othing": 4369,
      "island": 4370,
      "web": 4371,
      "cheap": 4372,
      "dece": 4373,
      "hows": 4374,
      "nowhere": 4375,
      "intention": 4376,
      "awh": 4377,
      "##ints": 4378,
      "surgery": 4379,
      "player": 4380,
      "esc": 4381,
      "followed": 4382,
      "divor": 4383,
      "adventure": 4384,
      "spiritual": 4385,
      "example": 4386,
      "smooth": 4387,
      "hyp": 4388,
      "drove": 4389,
      "various": 4390,
      "political": 4391,
      "schedule": 4392,
      "british": 4393,
      "hildy": 4394,
      "fathers": 4395,
      "mut": 4396,
      "mich": 4397,
      "pushing": 4398,
      "##bing": 4399,
      "##ias": 4400,
      "cha": 4401,
      "defend": 4402,
      "unpr": 4403,
      "##ummy": 4404,
      "closed": 4405,
      "pace": 4406,
      "reader": 4407,
      "crack": 4408,
      "indust": 4409,
      "setting": 4410,
      "particip": 4411,
      "vision": 4412,
      "suffer": 4413,
      "basis": 4414,
      "victor": 4415,
      "##otected": 4416,
      "gifts": 4417,
      "mistakes": 4418,
      "panic": 4419,
      "discovered": 4420,
      "papers": 4421,
      "screen": 4422,
      "false": 4423,
      "acknow": 4424,
      "awhile": 4425,
      "gee": 4426,
      "led": 4427,
      "mile": 4428,
      "##uary": 4429,
      "##know": 4430,
      "##inge": 4431,
      "tow": 4432,
      "libr": 4433,
      "whoever": 4434,
      "intense": 4435,
      "pock": 4436,
      "afric": 4437,
      "prim": 4438,
      "breast": 4439,
      "areas": 4440,
      "kinds": 4441,
      "crime": 4442,
      "surely": 4443,
      "attach": 4444,
      "higher": 4445,
      "##ailable": 4446,
      "uncle": 4447,
      "sensation": 4448,
      "officer": 4449,
      "repeat": 4450,
      "original": 4451,
      "wimpy": 4452,
      "unprotected": 4453,
      "bomb": 4454,
      "data": 4455,
      "jake": 4456,
      "mult": 4457,
      "rac": 4458,
      "##gu": 4459,
      "##aur": 4460,
      "thin": 4461,
      "##elve": 4462,
      "magn": 4463,
      "cleaning": 4464,
      "shouldn": 4465,
      "apply": 4466,
      "boat": 4467,
      "##alled": 4468,
      "indul": 4469,
      "mommy": 4470,
      "ocean": 4471,
      "raise": 4472,
      "promised": 4473,
      "sending": 4474,
      "opinions": 4475,
      "investig": 4476,
      "desperately": 4477,
      "screaming": 4478,
      "degree": 4479,
      "dismayed": 4480,
      "focused": 4481,
      "ken": 4482,
      "lam": 4483,
      "vill": 4484,
      "##yer": 4485,
      "##ox": 4486,
      "##just": 4487,
      "thor": 4488,
      "##nders": 4489,
      "##ester": 4490,
      "##eter": 4491,
      "##icing": 4492,
      "cab": 4493,
      "chap": 4494,
      "facing": 4495,
      "mob": 4496,
      "apple": 4497,
      "ends": 4498,
      "remembered": 4499,
      "showed": 4500,
      "checked": 4501,
      "topic": 4502,
      "connected": 4503,
      "staring": 4504,
      "naked": 4505,
      "carrying": 4506,
      "desperate": 4507,
      "fund": 4508,
      "article": 4509,
      "williams": 4510,
      "inspiration": 4511,
      "civil": 4512,
      "bound": 4513,
      "jun": 4514,
      "##of": 4515,
      "##over": 4516,
      "analy": 4517,
      "log": 4518,
      "##aine": 4519,
      "concl": 4520,
      "spread": 4521,
      "pages": 4522,
      "resist": 4523,
      "contain": 4524,
      "##izz": 4525,
      "insane": 4526,
      "attend": 4527,
      "entry": 4528,
      "consist": 4529,
      "planned": 4530,
      "deeper": 4531,
      "milk": 4532,
      "perspective": 4533,
      "hill": 4534,
      "por": 4535,
      "wishing": 4536,
      "##mates": 4537,
      "##ipp": 4538,
      "##fo": 4539,
      "##sty": 4540,
      "##ara": 4541,
      "##aries": 4542,
      "section": 4543,
      "someones": 4544,
      "shoulder": 4545,
      "realise": 4546,
      "lessons": 4547,
      "flu": 4548,
      "nightm": 4549,
      "craw": 4550,
      "incident": 4551,
      "speed": 4552,
      "frustration": 4553,
      "option": 4554,
      "judged": 4555,
      "returned": 4556,
      "center": 4557,
      "smoke": 4558,
      "beside": 4559,
      "fortun": 4560,
      "tranquil": 4561,
      "doctors": 4562,
      "dare": 4563,
      "fle": 4564,
      "pill": 4565,
      "session": 4566,
      "ted": 4567,
      "vile": 4568,
      "##ien": 4569,
      "##nam": 4570,
      "##ube": 4571,
      "##eag": 4572,
      "##anz": 4573,
      "wander": 4574,
      "alt": 4575,
      "clock": 4576,
      "makeup": 4577,
      "impact": 4578,
      "courage": 4579,
      "angered": 4580,
      "headed": 4581,
      "kidding": 4582,
      "##vention": 4583,
      "drama": 4584,
      "indep": 4585,
      "lonel": 4586,
      "foods": 4587,
      "england": 4588,
      "occur": 4589,
      "radiant": 4590,
      "records": 4591,
      "cooking": 4592,
      "science": 4593,
      "oblig": 4594,
      "embrace": 4595,
      "writers": 4596,
      "bat": 4597,
      "bon": 4598,
      "dressed": 4599,
      "pit": 4600,
      "pure": 4601,
      "ren": 4602,
      "tel": 4603,
      "tues": 4604,
      "weap": 4605,
      "##eg": 4606,
      "##cra": 4607,
      "##five": 4608,
      "##itation": 4609,
      "youth": 4610,
      "docum": 4611,
      "aside": 4612,
      "##ulate": 4613,
      "reve": 4614,
      "prison": 4615,
      "assume": 4616,
      "minor": 4617,
      "begun": 4618,
      "##attered": 4619,
      "mister": 4620,
      "succeed": 4621,
      "medical": 4622,
      "stars": 4623,
      "favour": 4624,
      "rule": 4625,
      "sympt": 4626,
      "sharp": 4627,
      "loneliness": 4628,
      "alex": 4629,
      "jail": 4630,
      "lt": 4631,
      "lin": 4632,
      "mike": 4633,
      "##erv": 4634,
      "##ites": 4635,
      "##itary": 4636,
      "##eness": 4637,
      "##ids": 4638,
      "cake": 4639,
      "poet": 4640,
      "spin": 4641,
      "encount": 4642,
      "brush": 4643,
      "bodies": 4644,
      "heads": 4645,
      "function": 4646,
      "obs": 4647,
      "muscles": 4648,
      "colleag": 4649,
      "unwanted": 4650,
      "gentlemen": 4651,
      "solution": 4652,
      "available": 4653,
      "concern": 4654,
      "louis": 4655,
      "existence": 4656,
      "collection": 4657,
      "source": 4658,
      "spiteful": 4659,
      "suicide": 4660,
      "equally": 4661,
      "industry": 4662,
      "independ": 4663,
      "bones": 4664,
      "cough": 4665,
      "fate": 4666,
      "hid": 4667,
      "um": 4668,
      "##ios": 4669,
      "##rel": 4670,
      "##ris": 4671,
      "loser": 4672,
      "##iles": 4673,
      "fred": 4674,
      "task": 4675,
      "blah": 4676,
      "happier": 4677,
      "smith": 4678,
      "hopes": 4679,
      "coun": 4680,
      "##cohol": 4681,
      "heading": 4682,
      "##arett": 4683,
      "enter": 4684,
      "sooner": 4685,
      "sales": 4686,
      "lifest": 4687,
      "flowers": 4688,
      "neighborhood": 4689,
      "washington": 4690,
      "ell": 4691,
      "james": 4692,
      "feelin": 4693,
      "meat": 4694,
      "male": 4695,
      "##istry": 4696,
      "saving": 4697,
      "rights": 4698,
      "goodness": 4699,
      "related": 4700,
      "##cessful": 4701,
      "cheated": 4702,
      "instantly": 4703,
      "creature": 4704,
      "refuse": 4705,
      "sisters": 4706,
      "dropped": 4707,
      "attractive": 4708,
      "flying": 4709,
      "religion": 4710,
      "aspects": 4711,
      "concentrate": 4712,
      "cigarett": 4713,
      "medicine": 4714,
      "opposite": 4715,
      "eh": 4716,
      "ol": 4717,
      "oil": 4718,
      "sile": 4719,
      "##mer": 4720,
      "##ndry": 4721,
      "##omin": 4722,
      "habit": 4723,
      "whil": 4724,
      "storm": 4725,
      "mexic": 4726,
      "atm": 4727,
      "alcohol": 4728,
      "chas": 4729,
      "freaking": 4730,
      "plant": 4731,
      "moves": 4732,
      "tall": 4733,
      "spark": 4734,
      "splend": 4735,
      "shock": 4736,
      "artists": 4737,
      "unsuc": 4738,
      "ignor": 4739,
      "raw": 4740,
      "evidence": 4741,
      "accord": 4742,
      "solid": 4743,
      "advant": 4744,
      "prepare": 4745,
      "guns": 4746,
      "receiving": 4747,
      "celebrate": 4748,
      "wheel": 4749,
      "tuesday": 4750,
      "silent": 4751,
      "unsuccessful": 4752,
      "aust": 4753,
      "bum": 4754,
      "corn": 4755,
      "dy": 4756,
      "jul": 4757,
      "lat": 4758,
      "las": 4759,
      "matt": 4760,
      "river": 4761,
      "##nie": 4762,
      "##rit": 4763,
      "##eable": 4764,
      "mail": 4765,
      "alot": 4766,
      "##roll": 4767,
      "exec": 4768,
      "##ressive": 4769,
      "offered": 4770,
      "arch": 4771,
      "smiling": 4772,
      "scra": 4773,
      "scri": 4774,
      "hoped": 4775,
      "newsp": 4776,
      "accepting": 4777,
      "built": 4778,
      "ears": 4779,
      "killer": 4780,
      "possibility": 4781,
      "differently": 4782,
      "expectations": 4783,
      "lighter": 4784,
      "dave": 4785,
      "engine": 4786,
      "fantas": 4787,
      "prayer": 4788,
      "covered": 4789,
      "benevo": 4790,
      "##ette": 4791,
      "motivation": 4792,
      "nuts": 4793,
      "teenager": 4794,
      "occasionally": 4795,
      "lifestyle": 4796,
      "whilst": 4797,
      "benevolent": 4798,
      "bell": 4799,
      "edd": 4800,
      "gang": 4801,
      "yknow": 4802,
      "##ield": 4803,
      "##heart": 4804,
      "##pa": 4805,
      "##po": 4806,
      "waited": 4807,
      "forth": 4808,
      "shark": 4809,
      "causing": 4810,
      "somed": 4811,
      "sometime": 4812,
      "blo": 4813,
      "prospect": 4814,
      "brill": 4815,
      "contem": 4816,
      "import": 4817,
      "switch": 4818,
      "famous": 4819,
      "listened": 4820,
      "blogger": 4821,
      "restaur": 4822,
      "chee": 4823,
      "burning": 4824,
      "streets": 4825,
      "sympathy": 4826,
      "benefit": 4827,
      "deny": 4828,
      "##vision": 4829,
      "philos": 4830,
      "ess": 4831,
      "grief": 4832,
      "ms": 4833,
      "math": 4834,
      "nin": 4835,
      "pour": 4836,
      "##mn": 4837,
      "##ov": 4838,
      "##inging": 4839,
      "##verage": 4840,
      "##ril": 4841,
      "knee": 4842,
      "##road": 4843,
      "sacri": 4844,
      "tax": 4845,
      "##ada": 4846,
      "bridge": 4847,
      "##ission": 4848,
      "scale": 4849,
      "sla": 4850,
      "flash": 4851,
      "talks": 4852,
      "invited": 4853,
      "fears": 4854,
      "##itional": 4855,
      "laundry": 4856,
      "thousands": 4857,
      "copy": 4858,
      "throwing": 4859,
      "conversations": 4860,
      "##host": 4861,
      "football": 4862,
      "mirac": 4863,
      "necessarily": 4864,
      "abandoned": 4865,
      "##ropri": 4866,
      "script": 4867,
      "aunt": 4868,
      "era": 4869,
      "gather": 4870,
      "ghost": 4871,
      "hen": 4872,
      "leng": 4873,
      "national": 4874,
      "tun": 4875,
      "wide": 4876,
      "##cel": 4877,
      "##gen": 4878,
      "##wood": 4879,
      "##uely": 4880,
      "lies": 4881,
      "mama": 4882,
      "unus": 4883,
      "unex": 4884,
      "stranger": 4885,
      "carried": 4886,
      "everythings": 4887,
      "wondered": 4888,
      "interact": 4889,
      "instruct": 4890,
      "surprising": 4891,
      "annoying": 4892,
      "leads": 4893,
      "expression": 4894,
      "trees": 4895,
      "request": 4896,
      "gained": 4897,
      "experiment": 4898,
      "german": 4899,
      "someday": 4900,
      "gri": 4901,
      "mour": 4902,
      "vib": 4903,
      "wet": 4904,
      "##bi": 4905,
      "##rom": 4906,
      "##fuck": 4907,
      "##ford": 4908,
      "femin": 4909,
      "sher": 4910,
      "sucks": 4911,
      "champ": 4912,
      "aren": 4913,
      "coat": 4914,
      "tape": 4915,
      "disease": 4916,
      "cris": 4917,
      "assign": 4918,
      "decor": 4919,
      "lights": 4920,
      "options": 4921,
      "growth": 4922,
      "pulling": 4923,
      "circle": 4924,
      "majority": 4925,
      "spoke": 4926,
      "treasured": 4927,
      "cuz": 4928,
      "brian": 4929,
      "therapy": 4930,
      "charlie": 4931,
      "dw": 4932,
      "eth": 4933,
      "rose": 4934,
      "sear": 4935,
      "vote": 4936,
      "##matic": 4937,
      "##bar": 4938,
      "##rr": 4939,
      "threw": 4940,
      "##eding": 4941,
      "##any": 4942,
      "forty": 4943,
      "consequ": 4944,
      "disres": 4945,
      "clin": 4946,
      "##oles": 4947,
      "compar": 4948,
      "bruce": 4949,
      "realised": 4950,
      "worthy": 4951,
      "##phere": 4952,
      "fallen": 4953,
      "interests": 4954,
      "colors": 4955,
      "secure": 4956,
      "basic": 4957,
      "exams": 4958,
      "experiencing": 4959,
      "monster": 4960,
      "drawing": 4961,
      "frankly": 4962,
      "anti": 4963,
      "achieved": 4964,
      "princess": 4965,
      "martin": 4966,
      "robin": 4967,
      "darling": 4968,
      "specific": 4969,
      "wasted": 4970,
      "disli": 4971,
      "increasingly": 4972,
      "survive": 4973,
      "gas": 4974,
      "lem": 4975,
      "rate": 4976,
      "wip": 4977,
      "##tle": 4978,
      "##rous": 4979,
      "##zed": 4980,
      "beating": 4981,
      "sty": 4982,
      "stum": 4983,
      "sole": 4984,
      "##ops": 4985,
      "##aus": 4986,
      "bash": 4987,
      "fruit": 4988,
      "fac": 4989,
      "plot": 4990,
      "intent": 4991,
      "##cies": 4992,
      "clar": 4993,
      "prevent": 4994,
      "remark": 4995,
      "twist": 4996,
      "assum": 4997,
      "##onscious": 4998,
      "entered": 4999,
      "horribly": 5000,
      "films": 5001,
      "despair": 5002,
      "burden": 5003,
      "shots": 5004,
      "lawyer": 5005,
      "religious": 5006,
      "model": 5007,
      "satisfaction": 5008,
      "##underst": 5009,
      "thorough": 5010,
      "reveal": 5011,
      "eddie": 5012,
      "philosoph": 5013,
      "aim": 5014,
      "cart": 5015,
      "etern": 5016,
      "lun": 5017,
      "lect": 5018,
      "mi": 5019,
      "wat": 5020,
      "##jo": 5021,
      "fever": 5022,
      "toile": 5023,
      "##sters": 5024,
      "##anced": 5025,
      "shout": 5026,
      "##iring": 5027,
      "##ille": 5028,
      "weigh": 5029,
      "goin": 5030,
      "chain": 5031,
      "##erson": 5032,
      "fabr": 5033,
      "disci": 5034,
      "prot": 5035,
      "##agn": 5036,
      "twelve": 5037,
      "puts": 5038,
      "walter": 5039,
      "humans": 5040,
      "cheese": 5041,
      "paris": 5042,
      "expensive": 5043,
      "eaten": 5044,
      "military": 5045,
      "exception": 5046,
      "include": 5047,
      "strangers": 5048,
      "marty": 5049,
      "arrange": 5050,
      "wasting": 5051,
      "wrap": 5052,
      "cub": 5053,
      "gaz": 5054,
      "jas": 5055,
      "rub": 5056,
      "##oon": 5057,
      "##fy": 5058,
      "##elle": 5059,
      "items": 5060,
      "##uten": 5061,
      "##ulation": 5062,
      "sew": 5063,
      "united": 5064,
      "faces": 5065,
      "helpful": 5066,
      "##eased": 5067,
      "impression": 5068,
      "granted": 5069,
      "players": 5070,
      "trigg": 5071,
      "skip": 5072,
      "##iforn": 5073,
      "invite": 5074,
      "californ": 5075,
      "announ": 5076,
      "reply": 5077,
      "torn": 5078,
      "groups": 5079,
      "oclock": 5080,
      "airport": 5081,
      "director": 5082,
      "failed": 5083,
      "unique": 5084,
      "levels": 5085,
      "merely": 5086,
      "argument": 5087,
      "cruel": 5088,
      "google": 5089,
      "status": 5090,
      "mildly": 5091,
      "ultimately": 5092,
      "splendid": 5093,
      "bills": 5094,
      "cit": 5095,
      "ded": 5096,
      "dor": 5097,
      "wore": 5098,
      "##gency": 5099,
      "##ron": 5100,
      "##ki": 5101,
      "##vant": 5102,
      "##reg": 5103,
      "haw": 5104,
      "lip": 5105,
      "##ications": 5106,
      "stock": 5107,
      "doors": 5108,
      "worn": 5109,
      "sees": 5110,
      "unp": 5111,
      "code": 5112,
      "tag": 5113,
      "spect": 5114,
      "disp": 5115,
      "##osphere": 5116,
      "active": 5117,
      "scare": 5118,
      "scary": 5119,
      "keys": 5120,
      "##ception": 5121,
      "excl": 5122,
      "decl": 5123,
      "greater": 5124,
      "admire": 5125,
      "##bbish": 5126,
      "leaders": 5127,
      "profess": 5128,
      "econ": 5129,
      "views": 5130,
      "oddly": 5131,
      "contribut": 5132,
      "recipe": 5133,
      "volunt": 5134,
      "clients": 5135,
      "detective": 5136,
      "enemy": 5137,
      "horm": 5138,
      "lud": 5139,
      "lap": 5140,
      "row": 5141,
      "##hu": 5142,
      "##tin": 5143,
      "##ping": 5144,
      "thurs": 5145,
      "tone": 5146,
      "##icient": 5147,
      "mask": 5148,
      "knees": 5149,
      "bags": 5150,
      "##ateg": 5151,
      "##esty": 5152,
      "plat": 5153,
      "everytime": 5154,
      "qual": 5155,
      "##olf": 5156,
      "bread": 5157,
      "##bert": 5158,
      "drown": 5159,
      "trade": 5160,
      "committed": 5161,
      "damage": 5162,
      "blessing": 5163,
      "possess": 5164,
      "healing": 5165,
      "wednes": 5166,
      "shooting": 5167,
      "balls": 5168,
      "glasses": 5169,
      "unfair": 5170,
      "neighb": 5171,
      "ticket": 5172,
      "foreign": 5173,
      "sorrowful": 5174,
      "anticipation": 5175,
      "magazine": 5176,
      "pocket": 5177,
      "document": 5178,
      "advantage": 5179,
      "importance": 5180,
      "length": 5181,
      "jen": 5182,
      "june": 5183,
      "mat": 5184,
      "mic": 5185,
      "nast": 5186,
      "nail": 5187,
      "rage": 5188,
      "##gas": 5189,
      "##gment": 5190,
      "##house": 5191,
      "##rat": 5192,
      "##char": 5193,
      "##irm": 5194,
      "chances": 5195,
      "##unities": 5196,
      "agent": 5197,
      "clothing": 5198,
      "shoulders": 5199,
      "adop": 5200,
      "parties": 5201,
      "slip": 5202,
      "phra": 5203,
      "finishing": 5204,
      "##coming": 5205,
      "##ival": 5206,
      "detail": 5207,
      "misunderst": 5208,
      "messages": 5209,
      "explan": 5210,
      "adding": 5211,
      "engage": 5212,
      "leading": 5213,
      "cutting": 5214,
      "riding": 5215,
      "darkness": 5216,
      "daughters": 5217,
      "burned": 5218,
      "discussion": 5219,
      "congress": 5220,
      "modern": 5221,
      "ryan": 5222,
      "library": 5223,
      "fortunate": 5224,
      "border": 5225,
      "cud": 5226,
      "dust": 5227,
      "dude": 5228,
      "jones": 5229,
      "kat": 5230,
      "nag": 5231,
      "rat": 5232,
      "rail": 5233,
      "scent": 5234,
      "##iers": 5235,
      "##sks": 5236,
      "##resh": 5237,
      "##down": 5238,
      "tooth": 5239,
      "##each": 5240,
      "waves": 5241,
      "##etime": 5242,
      "stone": 5243,
      "doc": 5244,
      "##iments": 5245,
      "##ama": 5246,
      "sevent": 5247,
      "moz": 5248,
      "bite": 5249,
      "##ffic": 5250,
      "##ement": 5251,
      "acad": 5252,
      "lee": 5253,
      "trapped": 5254,
      "excel": 5255,
      "humor": 5256,
      "humorous": 5257,
      "indian": 5258,
      "warning": 5259,
      "blessings": 5260,
      "burst": 5261,
      "devil": 5262,
      "singing": 5263,
      "dollar": 5264,
      "sarah": 5265,
      "technology": 5266,
      "regularly": 5267,
      "scient": 5268,
      "powers": 5269,
      "pattern": 5270,
      "vaguely": 5271,
      "flawless": 5272,
      "symptoms": 5273,
      "california": 5274,
      "bor": 5275,
      "cro": 5276,
      "range": 5277,
      "sou": 5278,
      "##lor": 5279,
      "##ont": 5280,
      "##dr": 5281,
      "##father": 5282,
      "toss": 5283,
      "##lled": 5284,
      "han": 5285,
      "itd": 5286,
      "##ares": 5287,
      "lied": 5288,
      "##oooo": 5289,
      "##rified": 5290,
      "worship": 5291,
      "locked": 5292,
      "coz": 5293,
      "coast": 5294,
      "plays": 5295,
      "quote": 5296,
      "##olic": 5297,
      "##icked": 5298,
      "awfully": 5299,
      "complex": 5300,
      "offering": 5301,
      "adam": 5302,
      "##place": 5303,
      "crash": 5304,
      "elses": 5305,
      "elaine": 5306,
      "metho": 5307,
      "baron": 5308,
      "construct": 5309,
      "engaged": 5310,
      "explained": 5311,
      "leader": 5312,
      "praying": 5313,
      "opportunities": 5314,
      "compassion": 5315,
      "mainly": 5316,
      "benjam": 5317,
      "customer": 5318,
      "customers": 5319,
      "combination": 5320,
      "update": 5321,
      "frequently": 5322,
      "surface": 5323,
      "cousin": 5324,
      "brilliant": 5325,
      "thoroughly": 5326,
      "gal": 5327,
      "jub": 5328,
      "junk": 5329,
      "ling": 5330,
      "rise": 5331,
      "sides": 5332,
      "sque": 5333,
      "vall": 5334,
      "##mate": 5335,
      "wave": 5336,
      "stead": 5337,
      "doin": 5338,
      "notes": 5339,
      "reaching": 5340,
      "##ront": 5341,
      "chan": 5342,
      "exch": 5343,
      "noise": 5344,
      "coach": 5345,
      "guar": 5346,
      "happily": 5347,
      "trusted": 5348,
      "struct": 5349,
      "appalled": 5350,
      "trail": 5351,
      "##udes": 5352,
      "giant": 5353,
      "extent": 5354,
      "valid": 5355,
      "learnt": 5356,
      "explore": 5357,
      "checking": 5358,
      "progra": 5359,
      "intelligence": 5360,
      "grandm": 5361,
      "unfortunately": 5362,
      "demon": 5363,
      "directly": 5364,
      "orders": 5365,
      "autom": 5366,
      "regardless": 5367,
      "contribute": 5368,
      "swimming": 5369,
      "measure": 5370,
      "divorce": 5371,
      "searching": 5372,
      "disliked": 5373,
      "toilet": 5374,
      "nasty": 5375,
      "mozart": 5376,
      "academ": 5377,
      "file": 5378,
      "kr": 5379,
      "kor": 5380,
      "nath": 5381,
      "pha": 5382,
      "##alent": 5383,
      "##ped": 5384,
      "##da": 5385,
      "##dra": 5386,
      "thick": 5387,
      "##ero": 5388,
      "feat": 5389,
      "##oting": 5390,
      "lic": 5391,
      "stir": 5392,
      "abilities": 5393,
      "##the": 5394,
      "causes": 5395,
      "reward": 5396,
      "chines": 5397,
      "intel": 5398,
      "hadn": 5399,
      "queen": 5400,
      "resour": 5401,
      "perce": 5402,
      "endless": 5403,
      "craving": 5404,
      "crimin": 5405,
      "surge": 5406,
      "minim": 5407,
      "produce": 5408,
      "nerves": 5409,
      "puppy": 5410,
      "refresh": 5411,
      "numbers": 5412,
      "steph": 5413,
      "heav": 5414,
      "former": 5415,
      "challenges": 5416,
      "nurse": 5417,
      "included": 5418,
      "friendships": 5419,
      "juice": 5420,
      "dislike": 5421,
      "semester": 5422,
      "split": 5423,
      "concert": 5424,
      "enthus": 5425,
      "television": 5426,
      "multip": 5427,
      "hidden": 5428,
      "citiz": 5429,
      "benjamin": 5430,
      "guarant": 5431,
      "average": 5432,
      "bay": 5433,
      "cats": 5434,
      "lower": 5435,
      "rent": 5436,
      "uk": 5437,
      "yo": 5438,
      "##inc": 5439,
      "##atives": 5440,
      "##ormed": 5441,
      "##eant": 5442,
      "##rees": 5443,
      "liking": 5444,
      "##ica": 5445,
      "##che": 5446,
      "##uls": 5447,
      "webs": 5448,
      "faced": 5449,
      "blond": 5450,
      "manager": 5451,
      "partly": 5452,
      "##izes": 5453,
      "perman": 5454,
      "appropri": 5455,
      "homework": 5456,
      "firm": 5457,
      "conference": 5458,
      "craft": 5459,
      "broad": 5460,
      "##olution": 5461,
      "thrown": 5462,
      "##aneously": 5463,
      "laying": 5464,
      "deserves": 5465,
      "##hold": 5466,
      "weakness": 5467,
      "attacked": 5468,
      "traveling": 5469,
      "prince": 5470,
      "settled": 5471,
      "buddy": 5472,
      "financial": 5473,
      "whisper": 5474,
      "tremend": 5475,
      "atmosphere": 5476,
      "according": 5477,
      "contempl": 5478,
      "restaurant": 5479,
      "ludic": 5480,
      "wednesday": 5481,
      "adopt": 5482,
      "squee": 5483,
      "bump": 5484,
      "cath": 5485,
      "hating": 5486,
      "pile": 5487,
      "pushed": 5488,
      "rum": 5489,
      "sigh": 5490,
      "selling": 5491,
      "##iation": 5492,
      "##wal": 5493,
      "##yy": 5494,
      "##itar": 5495,
      "##ona": 5496,
      "ing": 5497,
      "stink": 5498,
      "##chool": 5499,
      "shr": 5500,
      "unin": 5501,
      "somethin": 5502,
      "poison": 5503,
      "tast": 5504,
      "clau": 5505,
      "emo": 5506,
      "##osition": 5507,
      "insight": 5508,
      "##shine": 5509,
      "traffic": 5510,
      "flav": 5511,
      "marath": 5512,
      "minds": 5513,
      "bub": 5514,
      "essent": 5515,
      "laur": 5516,
      "messed": 5517,
      "petrified": 5518,
      "punch": 5519,
      "jealousy": 5520,
      "corpor": 5521,
      "dishes": 5522,
      "sunshine": 5523,
      "hundreds": 5524,
      "practically": 5525,
      "kicks": 5526,
      "destruct": 5527,
      "square": 5528,
      "development": 5529,
      "limit": 5530,
      "ordinary": 5531,
      "regarding": 5532,
      "silence": 5533,
      "jerk": 5534,
      "eggs": 5535,
      "bashful": 5536,
      "volunte": 5537,
      "thursday": 5538,
      "chinese": 5539,
      "website": 5540,
      "ludicrous": 5541,
      "bust": 5542,
      "bang": 5543,
      "gear": 5544,
      "gross": 5545,
      "hmm": 5546,
      "ja": 5547,
      "oct": 5548,
      "rare": 5549,
      "tip": 5550,
      "##boy": 5551,
      "##law": 5552,
      "##sis": 5553,
      "##geant": 5554,
      "##und": 5555,
      "##oke": 5556,
      "##ded": 5557,
      "##elly": 5558,
      "theat": 5559,
      "hab": 5560,
      "##sey": 5561,
      "nothin": 5562,
      "##usive": 5563,
      "unif": 5564,
      "unne": 5565,
      "tack": 5566,
      "spr": 5567,
      "ages": 5568,
      "bits": 5569,
      "mud": 5570,
      "tool": 5571,
      "guide": 5572,
      "goods": 5573,
      "relatively": 5574,
      "insurance": 5575,
      "desert": 5576,
      "worlds": 5577,
      "holly": 5578,
      "damned": 5579,
      "instit": 5580,
      "classroom": 5581,
      "ward": 5582,
      "counter": 5583,
      "grey": 5584,
      "tex": 5585,
      "allows": 5586,
      "dreaming": 5587,
      "struggled": 5588,
      "reminds": 5589,
      "appearance": 5590,
      "climb": 5591,
      "commander": 5592,
      "commitment": 5593,
      "critic": 5594,
      "agreed": 5595,
      "escap": 5596,
      "cert": 5597,
      "pant": 5598,
      "pics": 5599,
      "wig": 5600,
      "##ext": 5601,
      "##list": 5602,
      "##rict": 5603,
      "##aa": 5604,
      "##ael": 5605,
      "##ville": 5606,
      "##orthy": 5607,
      "##vember": 5608,
      "hallow": 5609,
      "stol": 5610,
      "soph": 5611,
      "kno": 5612,
      "china": 5613,
      "lover": 5614,
      "##ained": 5615,
      "##ilant": 5616,
      "november": 5617,
      "conv": 5618,
      "peel": 5619,
      "spell": 5620,
      "overcome": 5621,
      "tools": 5622,
      "##icks": 5623,
      "print": 5624,
      "acts": 5625,
      "finds": 5626,
      "traum": 5627,
      "sadd": 5628,
      "bookmark": 5629,
      "sleepy": 5630,
      "mornings": 5631,
      "humbled": 5632,
      "skill": 5633,
      "skirt": 5634,
      "charmed": 5635,
      "instinct": 5636,
      "rooms": 5637,
      "##acity": 5638,
      "studio": 5639,
      "forgetting": 5640,
      "explaining": 5641,
      "occup": 5642,
      "##mission": 5643,
      "scratch": 5644,
      "affair": 5645,
      "vibe": 5646,
      "jumping": 5647,
      "jumped": 5648,
      "organization": 5649,
      "official": 5650,
      "identify": 5651,
      "individuals": 5652,
      "december": 5653,
      "poetry": 5654,
      "obsess": 5655,
      "surprisingly": 5656,
      "solemn": 5657,
      "phase": 5658,
      "anth": 5659,
      "bible": 5660,
      "brief": 5661,
      "hates": 5662,
      "jeans": 5663,
      "via": 5664,
      "##ba": 5665,
      "##aken": 5666,
      "##ya": 5667,
      "theory": 5668,
      "##ano": 5669,
      "##arn": 5670,
      "##rant": 5671,
      "sus": 5672,
      "##ouses": 5673,
      "wherever": 5674,
      "illness": 5675,
      "scott": 5676,
      "impl": 5677,
      "cars": 5678,
      "depress": 5679,
      "font": 5680,
      "survi": 5681,
      "##mod": 5682,
      "minister": 5683,
      "horiz": 5684,
      "asks": 5685,
      "sorta": 5686,
      "creativity": 5687,
      "imagined": 5688,
      "parenting": 5689,
      "raised": 5690,
      "convince": 5691,
      "profound": 5692,
      "laughed": 5693,
      "services": 5694,
      "hyper": 5695,
      "burns": 5696,
      "snap": 5697,
      "lyr": 5698,
      "sinking": 5699,
      "quarter": 5700,
      "arrive": 5701,
      "conflict": 5702,
      "significant": 5703,
      "favourite": 5704,
      "colleagues": 5705,
      "stolen": 5706,
      "gest": 5707,
      "hence": 5708,
      "lis": 5709,
      "nails": 5710,
      "pad": 5711,
      "tension": 5712,
      "yellow": 5713,
      "##cs": 5714,
      "##cil": 5715,
      "##away": 5716,
      "##pret": 5717,
      "##ju": 5718,
      "thumb": 5719,
      "myst": 5720,
      "##utation": 5721,
      "liqu": 5722,
      "##ulated": 5723,
      "map": 5724,
      "##aming": 5725,
      "fran": 5726,
      "intended": 5727,
      "tasks": 5728,
      "pee": 5729,
      "disag": 5730,
      "prem": 5731,
      "resc": 5732,
      "persons": 5733,
      "swing": 5734,
      "glory": 5735,
      "flower": 5736,
      "march": 5737,
      "bloggers": 5738,
      "greatly": 5739,
      "ski": 5740,
      "commer": 5741,
      "admitted": 5742,
      "presents": 5743,
      "subst": 5744,
      "policy": 5745,
      "disappointment": 5746,
      "frozen": 5747,
      "dads": 5748,
      "medication": 5749,
      "gentleman": 5750,
      "questioning": 5751,
      "sneak": 5752,
      "stole": 5753,
      "transition": 5754,
      "tests": 5755,
      "kicked": 5756,
      "senate": 5757,
      "route": 5758,
      "replace": 5759,
      "##connect": 5760,
      "hunting": 5761,
      "jeffrey": 5762,
      "violence": 5763,
      "colonel": 5764,
      "purchase": 5765,
      "wisdom": 5766,
      "display": 5767,
      "chapter": 5768,
      "henry": 5769,
      "excellent": 5770,
      "intellect": 5771,
      "bun": 5772,
      "categ": 5773,
      "dow": 5774,
      "hip": 5775,
      "hitting": 5776,
      "tie": 5777,
      "##nown": 5778,
      "##vation": 5779,
      "##inting": 5780,
      "##atory": 5781,
      "##atically": 5782,
      "toler": 5783,
      "##otes": 5784,
      "##uted": 5785,
      "##utter": 5786,
      "##alf": 5787,
      "abuse": 5788,
      "##cend": 5789,
      "##ella": 5790,
      "rex": 5791,
      "outcome": 5792,
      "heck": 5793,
      "##ender": 5794,
      "##umn": 5795,
      "everyones": 5796,
      "bliss": 5797,
      "clue": 5798,
      "##ander": 5799,
      "workers": 5800,
      "##osis": 5801,
      "##soever": 5802,
      "fired": 5803,
      "distinct": 5804,
      "##comp": 5805,
      "acceptance": 5806,
      "interrupt": 5807,
      "bug": 5808,
      "commission": 5809,
      "##mmy": 5810,
      "holds": 5811,
      "subs": 5812,
      "metal": 5813,
      "homer": 5814,
      "continues": 5815,
      "drinks": 5816,
      "romance": 5817,
      "richard": 5818,
      "moody": 5819,
      "motor": 5820,
      "element": 5821,
      "solve": 5822,
      "grandfather": 5823,
      "transl": 5824,
      "millions": 5825,
      "smoking": 5826,
      "quietly": 5827,
      "techni": 5828,
      "cooper": 5829,
      "meals": 5830,
      "identity": 5831,
      "disappeared": 5832,
      "unkind": 5833,
      "destroyed": 5834,
      "japanese": 5835,
      "africa": 5836,
      "unexpected": 5837,
      "marathon": 5838,
      "der": 5839,
      "eve": 5840,
      "easter": 5841,
      "gim": 5842,
      "hun": 5843,
      "nation": 5844,
      "rot": 5845,
      "rant": 5846,
      "roof": 5847,
      "tit": 5848,
      "tut": 5849,
      "##cast": 5850,
      "##gue": 5851,
      "##rid": 5852,
      "thom": 5853,
      "todd": 5854,
      "##ari": 5855,
      "##cking": 5856,
      "mas": 5857,
      "mant": 5858,
      "whatsoever": 5859,
      "worries": 5860,
      "chic": 5861,
      "howd": 5862,
      "wouldve": 5863,
      "intensely": 5864,
      "sac": 5865,
      "sale": 5866,
      "seeking": 5867,
      "agg": 5868,
      "disc": 5869,
      "##ades": 5870,
      "activity": 5871,
      "kindness": 5872,
      "suppl": 5873,
      "drank": 5874,
      "perpet": 5875,
      "swall": 5876,
      "shaking": 5877,
      "trav": 5878,
      "trash": 5879,
      "marvel": 5880,
      "crush": 5881,
      "believing": 5882,
      "##ivated": 5883,
      "trial": 5884,
      "buff": 5885,
      "lake": 5886,
      "wishes": 5887,
      "expressed": 5888,
      "begins": 5889,
      "unsett": 5890,
      "extreme": 5891,
      "sentence": 5892,
      "touching": 5893,
      "studies": 5894,
      "spiritually": 5895,
      "sixty": 5896,
      "lieuten": 5897,
      "affected": 5898,
      "affection": 5899,
      "fortune": 5900,
      "ridiculously": 5901,
      "competition": 5902,
      "hatred": 5903,
      "unknown": 5904,
      "introduce": 5905,
      "sports": 5906,
      "emergency": 5907,
      "acquaint": 5908,
      "attached": 5909,
      "village": 5910,
      "conclusion": 5911,
      "counsel": 5912,
      "mexico": 5913,
      "fantasy": 5914,
      "robinson": 5915,
      "explanation": 5916,
      "soup": 5917,
      "kar": 5918,
      "wre": 5919,
      "##eet": 5920,
      "##egr": 5921,
      "##look": 5922,
      "##wr": 5923,
      "##eral": 5924,
      "toes": 5925,
      "##enced": 5926,
      "ital": 5927,
      "stare": 5928,
      "withdra": 5929,
      "shown": 5930,
      "knife": 5931,
      "reven": 5932,
      "ups": 5933,
      "nofo": 5934,
      "discom": 5935,
      "disconnect": 5936,
      "startled": 5937,
      "awe": 5938,
      "ideal": 5939,
      "remove": 5940,
      "contra": 5941,
      "insist": 5942,
      "appeal": 5943,
      "boots": 5944,
      "carefully": 5945,
      "marks": 5946,
      "moral": 5947,
      "talkin": 5948,
      "supported": 5949,
      "dramatic": 5950,
      "pleasantly": 5951,
      "label": 5952,
      "motherfuck": 5953,
      "standards": 5954,
      "polite": 5955,
      "sexually": 5956,
      "compliment": 5957,
      "husbands": 5958,
      "answered": 5959,
      "cases": 5960,
      "failing": 5961,
      "weekends": 5962,
      "prayers": 5963,
      "souls": 5964,
      "trend": 5965,
      "crossed": 5966,
      "patrick": 5967,
      "blew": 5968,
      "patients": 5969,
      "tempted": 5970,
      "width": 5971,
      "michael": 5972,
      "independent": 5973,
      "austin": 5974,
      "mourn": 5975,
      "jubilant": 5976,
      "unnecess": 5977,
      "lieutenant": 5978,
      "nofollow": 5979,
      "bre": 5980,
      "ego": 5981,
      "kicking": 5982,
      "ny": 5983,
      "yell": 5984,
      "##cal": 5985,
      "##iance": 5986,
      "##lim": 5987,
      "##tain": 5988,
      "##nic": 5989,
      "shel": 5990,
      "alien": 5991,
      "outs": 5992,
      "##ussy": 5993,
      "##ums": 5994,
      "theme": 5995,
      "##cient": 5996,
      "manif": 5997,
      "empt": 5998,
      "proof": 5999,
      "##agon": 6000,
      "perverse": 6001,
      "insin": 6002,
      "terror": 6003,
      "remembering": 6004,
      "crave": 6005,
      "pains": 6006,
      "##ordin": 6007,
      "reasonable": 6008,
      "hellip": 6009,
      "facts": 6010,
      "##aughter": 6011,
      "exposed": 6012,
      "troubles": 6013,
      "reputation": 6014,
      "ignoring": 6015,
      "unworthy": 6016,
      "midnight": 6017,
      "signs": 6018,
      "expressing": 6019,
      "cope": 6020,
      "responsibilities": 6021,
      "majesty": 6022,
      "mercy": 6023,
      "victims": 6024,
      "fatig": 6025,
      "concerns": 6026,
      "patience": 6027,
      "glamour": 6028,
      "avoiding": 6029,
      "dropping": 6030,
      "lifes": 6031,
      "psycholog": 6032,
      "attracted": 6033,
      "genuine": 6034,
      "candy": 6035,
      "birds": 6036,
      "pilot": 6037,
      "europe": 6038,
      "acknowledge": 6039,
      "comparison": 6040,
      "fabric": 6041,
      "discipl": 6042,
      "habits": 6043,
      "halloween": 6044,
      "knocked": 6045,
      "aug": 6046,
      "gord": 6047,
      "pier": 6048,
      "rome": 6049,
      "rib": 6050,
      "seal": 6051,
      "wolf": 6052,
      "##mal": 6053,
      "##ef": 6054,
      "##iated": 6055,
      "##iable": 6056,
      "##ware": 6057,
      "##fically": 6058,
      "stiff": 6059,
      "ish": 6060,
      "los": 6061,
      "anyways": 6062,
      "herr": 6063,
      "##iece": 6064,
      "couldve": 6065,
      "manip": 6066,
      "##anda": 6067,
      "award": 6068,
      "tread": 6069,
      "compare": 6070,
      "##ashing": 6071,
      "dizzy": 6072,
      "##osh": 6073,
      "downstairs": 6074,
      "##beat": 6075,
      "##haha": 6076,
      "glow": 6077,
      "owners": 6078,
      "trained": 6079,
      "flor": 6080,
      "grass": 6081,
      "served": 6082,
      "##aren": 6083,
      "horror": 6084,
      "invol": 6085,
      "charity": 6086,
      "brains": 6087,
      "cheat": 6088,
      "curse": 6089,
      "sets": 6090,
      "musical": 6091,
      "muscle": 6092,
      "defense": 6093,
      "nerve": 6094,
      "driven": 6095,
      "absence": 6096,
      "visiting": 6097,
      "ordered": 6098,
      "unlike": 6099,
      "motion": 6100,
      "tempor": 6101,
      "kissing": 6102,
      "appears": 6103,
      "odds": 6104,
      "behaviour": 6105,
      "tickets": 6106,
      "communication": 6107,
      "repeated": 6108,
      "##belie": 6109,
      "recovery": 6110,
      "##atoes": 6111,
      "savage": 6112,
      "jason": 6113,
      "valley": 6114,
      "hits": 6115,
      "iv": 6116,
      "om": 6117,
      "pul": 6118,
      "porn": 6119,
      "sno": 6120,
      "tay": 6121,
      "til": 6122,
      "tang": 6123,
      "tips": 6124,
      "yard": 6125,
      "##ivers": 6126,
      "##wich": 6127,
      "##nat": 6128,
      "##nch": 6129,
      "##real": 6130,
      "##aper": 6131,
      "##jud": 6132,
      "thigh": 6133,
      "stairs": 6134,
      "ath": 6135,
      "orange": 6136,
      "upstairs": 6137,
      "anytime": 6138,
      "poem": 6139,
      "spare": 6140,
      "ens": 6141,
      "user": 6142,
      "comprom": 6143,
      "##ago": 6144,
      "partners": 6145,
      "smiles": 6146,
      "score": 6147,
      "flesh": 6148,
      "understands": 6149,
      "completed": 6150,
      "register": 6151,
      "##apers": 6152,
      "admin": 6153,
      "admitting": 6154,
      "appreciation": 6155,
      "pete": 6156,
      "evan": 6157,
      "reminder": 6158,
      "judgment": 6159,
      "ruin": 6160,
      "laws": 6161,
      "larger": 6162,
      "challenged": 6163,
      "capture": 6164,
      "fancy": 6165,
      "videos": 6166,
      "argue": 6167,
      "silver": 6168,
      "congrat": 6169,
      "expert": 6170,
      "beliefs": 6171,
      "##ablan": 6172,
      "clouds": 6173,
      "russian": 6174,
      "waters": 6175,
      "refreshed": 6176,
      "lyrics": 6177,
      "downt": 6178,
      "este": 6179,
      "grie": 6180,
      "hire": 6181,
      "les": 6182,
      "mort": 6183,
      "nons": 6184,
      "ped": 6185,
      "pard": 6186,
      "rip": 6187,
      "rack": 6188,
      "##bon": 6189,
      "##af": 6190,
      "##vity": 6191,
      "##zer": 6192,
      "##reci": 6193,
      "##ene": 6194,
      "item": 6195,
      "##lder": 6196,
      "sof": 6197,
      "##essa": 6198,
      "##urt": 6199,
      "##rig": 6200,
      "mall": 6201,
      "sup": 6202,
      "alice": 6203,
      "chill": 6204,
      "unh": 6205,
      "unit": 6206,
      "intend": 6207,
      "integr": 6208,
      "peers": 6209,
      "cliff": 6210,
      "muse": 6211,
      "##olute": 6212,
      "adore": 6213,
      "bru": 6214,
      "##what": 6215,
      "jokes": 6216,
      "slo": 6217,
      "desig": 6218,
      "hearted": 6219,
      "moronic": 6220,
      "angu": 6221,
      "attor": 6222,
      "delet": 6223,
      "sweetheart": 6224,
      "irate": 6225,
      "invis": 6226,
      "committ": 6227,
      "misery": 6228,
      "buried": 6229,
      "falls": 6230,
      "winning": 6231,
      "humanity": 6232,
      "casablan": 6233,
      "signed": 6234,
      "lacking": 6235,
      "ruined": 6236,
      "wallet": 6237,
      "salad": 6238,
      "simult": 6239,
      "century": 6240,
      "focusing": 6241,
      "internal": 6242,
      "bullet": 6243,
      "legal": 6244,
      "lifetime": 6245,
      "windows": 6246,
      "arrest": 6247,
      "articles": 6248,
      "baseball": 6249,
      "abandon": 6250,
      "fulfill": 6251,
      "nightmare": 6252,
      "crisis": 6253,
      "neighbors": 6254,
      "stephen": 6255,
      "guarantee": 6256,
      "claude": 6257,
      "theatre": 6258,
      "sacred": 6259,
      "discomfort": 6260,
      "insincere": 6261,
      "aid": 6262,
      "bert": 6263,
      "gall": 6264,
      "hoo": 6265,
      "pizz": 6266,
      "ros": 6267,
      "rang": 6268,
      "teas": 6269,
      "tune": 6270,
      "vigor": 6271,
      "##ban": 6272,
      "##uition": 6273,
      "##va": 6274,
      "##off": 6275,
      "##eling": 6276,
      "fen": 6277,
      "tommy": 6278,
      "yout": 6279,
      "shine": 6280,
      "##ulations": 6281,
      "sequ": 6282,
      "outfits": 6283,
      "deck": 6284,
      "unapp": 6285,
      "fasc": 6286,
      "blown": 6287,
      "guitar": 6288,
      "##fted": 6289,
      "permission": 6290,
      "sword": 6291,
      "flood": 6292,
      "##uded": 6293,
      "iron": 6294,
      "##nold": 6295,
      "##aph": 6296,
      "extended": 6297,
      "labor": 6298,
      "retire": 6299,
      "suffered": 6300,
      "complicated": 6301,
      "torture": 6302,
      "negot": 6303,
      "##cript": 6304,
      "companies": 6305,
      "jesse": 6306,
      "steve": 6307,
      "types": 6308,
      "filling": 6309,
      "feedback": 6310,
      "reviews": 6311,
      "degrees": 6312,
      "lux": 6313,
      "candid": 6314,
      "photography": 6315,
      "contractions": 6316,
      "separate": 6317,
      "financially": 6318,
      "chasing": 6319,
      "latest": 6320,
      "phrase": 6321,
      "license": 6322,
      "criminal": 6323,
      "hunger": 6324,
      "swallow": 6325,
      "esteem": 6326,
      "nonsense": 6327,
      "casablanca": 6328,
      "pizza": 6329,
      "ay": 6330,
      "dent": 6331,
      "eg": 6332,
      "fel": 6333,
      "fought": 6334,
      "fits": 6335,
      "nause": 6336,
      "vig": 6337,
      "##but": 6338,
      "##iate": 6339,
      "##gia": 6340,
      "##erior": 6341,
      "##otion": 6342,
      "##uts": 6343,
      "sting": 6344,
      "steam": 6345,
      "##uled": 6346,
      "gettin": 6347,
      "chip": 6348,
      "heels": 6349,
      "deeds": 6350,
      "unm": 6351,
      "mode": 6352,
      "clay": 6353,
      "prec": 6354,
      "diagn": 6355,
      "ours": 6356,
      "##ogether": 6357,
      "pretending": 6358,
      "context": 6359,
      "boot": 6360,
      "realizing": 6361,
      "##ensity": 6362,
      "trap": 6363,
      "##box": 6364,
      "excess": 6365,
      "horses": 6366,
      "involve": 6367,
      "beast": 6368,
      "parking": 6369,
      "stands": 6370,
      "##acing": 6371,
      "halfway": 6372,
      "##break": 6373,
      "smaller": 6374,
      "rabb": 6375,
      "files": 6376,
      "##attle": 6377,
      "election": 6378,
      "cleaned": 6379,
      "##case": 6380,
      "nobodys": 6381,
      "presented": 6382,
      "described": 6383,
      "secrets": 6384,
      "beneath": 6385,
      "patri": 6386,
      "avoided": 6387,
      "strike": 6388,
      "feeding": 6389,
      "princi": 6390,
      "immensely": 6391,
      "authority": 6392,
      "equal": 6393,
      "wrapped": 6394,
      "marylin": 6395,
      "fulfilled": 6396,
      "cloud": 6397,
      "encounter": 6398,
      "cigarette": 6399,
      "clinic": 6400,
      "steady": 6401,
      "exchange": 6402,
      "commercial": 6403,
      "simultaneously": 6404,
      "dall": 6405,
      "kay": 6406,
      "ox": 6407,
      "px": 6408,
      "pills": 6409,
      "ron": 6410,
      "rely": 6411,
      "sons": 6412,
      "tied": 6413,
      "tank": 6414,
      "tummy": 6415,
      "##bage": 6416,
      "##iel": 6417,
      "##tw": 6418,
      "##ubl": 6419,
      "##uits": 6420,
      "##vas": 6421,
      "##pher": 6422,
      "##xual": 6423,
      "theater": 6424,
      "##isc": 6425,
      "##ision": 6426,
      "##ena": 6427,
      "inev": 6428,
      "doe": 6429,
      "forest": 6430,
      "##chan": 6431,
      "##alog": 6432,
      "##ula": 6433,
      "##rier": 6434,
      "gol": 6435,
      "##ament": 6436,
      "comedy": 6437,
      "placed": 6438,
      "##uments": 6439,
      "convey": 6440,
      "disad": 6441,
      "##ishment": 6442,
      "pale": 6443,
      "struck": 6444,
      "actor": 6445,
      "scot": 6446,
      "joined": 6447,
      "desires": 6448,
      "glor": 6449,
      "grasp": 6450,
      "grabbed": 6451,
      "depending": 6452,
      "opens": 6453,
      "foundation": 6454,
      "values": 6455,
      "greet": 6456,
      "walks": 6457,
      "dealt": 6458,
      "bothering": 6459,
      "empow": 6460,
      "speaks": 6461,
      "despised": 6462,
      "sunny": 6463,
      "americans": 6464,
      "johnson": 6465,
      "accomp": 6466,
      "benefits": 6467,
      "systems": 6468,
      "grounded": 6469,
      "location": 6470,
      "awareness": 6471,
      "apology": 6472,
      "limited": 6473,
      "sandwich": 6474,
      "massive": 6475,
      "garbage": 6476,
      "golden": 6477,
      "soldier": 6478,
      "alarm": 6479,
      "screwed": 6480,
      "critical": 6481,
      "establ": 6482,
      "virginia": 6483,
      "influence": 6484,
      "chaos": 6485,
      "kenned": 6486,
      "cabin": 6487,
      "obligation": 6488,
      "unusual": 6489,
      "lungs": 6490,
      "nathan": 6491,
      "blonde": 6492,
      "unsettled": 6493,
      "unnecessary": 6494,
      "august": 6495,
      "invisible": 6496,
      "disadvant": 6497,
      "ast": 6498,
      "bb": 6499,
      "cott": 6500,
      "duck": 6501,
      "gary": 6502,
      "lash": 6503,
      "ppl": 6504,
      "pang": 6505,
      "tatt": 6506,
      "wil": 6507,
      "yelling": 6508,
      "zero": 6509,
      "##bow": 6510,
      "##girl": 6511,
      "feder": 6512,
      "##orter": 6513,
      "##nta": 6514,
      "##ita": 6515,
      "##reh": 6516,
      "##ota": 6517,
      "infect": 6518,
      "stones": 6519,
      "##outs": 6520,
      "weir": 6521,
      "reed": 6522,
      "debt": 6523,
      "##gend": 6524,
      "cole": 6525,
      "moist": 6526,
      "safer": 6527,
      "encouraged": 6528,
      "envy": 6529,
      "paget": 6530,
      "emails": 6531,
      "offense": 6532,
      "adjust": 6533,
      "reser": 6534,
      "##berry": 6535,
      "legend": 6536,
      "robbed": 6537,
      "shaw": 6538,
      "harsh": 6539,
      "confront": 6540,
      "handed": 6541,
      "wonderfully": 6542,
      "##xture": 6543,
      "https": 6544,
      "trib": 6545,
      "serving": 6546,
      "buzz": 6547,
      "amazingly": 6548,
      "warri": 6549,
      "recon": 6550,
      "explode": 6551,
      "driver": 6552,
      "absolute": 6553,
      "gently": 6554,
      "opposed": 6555,
      "disgusting": 6556,
      "frame": 6557,
      "uncertainty": 6558,
      "stopping": 6559,
      "rubbish": 6560,
      "preparing": 6561,
      "protection": 6562,
      "catching": 6563,
      "conditions": 6564,
      "fitness": 6565,
      "scenes": 6566,
      "fixed": 6567,
      "antsy": 6568,
      "typical": 6569,
      "campa": 6570,
      "require": 6571,
      "developed": 6572,
      "directions": 6573,
      "portray": 6574,
      "opera": 6575,
      "judgement": 6576,
      "recipes": 6577,
      "jimmy": 6578,
      "specifically": 6579,
      "reactions": 6580,
      "nicely": 6581,
      "pursue": 6582,
      "telep": 6583,
      "consequences": 6584,
      "borrow": 6585,
      "saddened": 6586,
      "mystery": 6587,
      "gimme": 6588,
      "taylor": 6589,
      "youtube": 6590,
      "airl": 6591,
      "austr": 6592,
      "pip": 6593,
      "sed": 6594,
      "vom": 6595,
      "vint": 6596,
      "wished": 6597,
      "yu": 6598,
      "##made": 6599,
      "##nis": 6600,
      "##apt": 6601,
      "##ober": 6602,
      "##fly": 6603,
      "stor": 6604,
      "stamp": 6605,
      "isra": 6606,
      "##imate": 6607,
      "##rain": 6608,
      "atl": 6609,
      "mand": 6610,
      "capital": 6611,
      "##inks": 6612,
      "babe": 6613,
      "##bley": 6614,
      "##esting": 6615,
      "demo": 6616,
      "##istration": 6617,
      "plate": 6618,
      "tap": 6619,
      "convention": 6620,
      "beings": 6621,
      "click": 6622,
      "prejud": 6623,
      "guid": 6624,
      "offers": 6625,
      "##ased": 6626,
      "diam": 6627,
      "diary": 6628,
      "released": 6629,
      "##reek": 6630,
      "joint": 6631,
      "swell": 6632,
      "##enses": 6633,
      "##anged": 6634,
      "##ques": 6635,
      "india": 6636,
      "paraly": 6637,
      "produ": 6638,
      "possibilities": 6639,
      "##bbie": 6640,
      "imagination": 6641,
      "seemingly": 6642,
      "followers": 6643,
      "negro": 6644,
      "behalf": 6645,
      "skinny": 6646,
      "shorts": 6647,
      "accused": 6648,
      "advance": 6649,
      "temple": 6650,
      "closely": 6651,
      "secretly": 6652,
      "challenging": 6653,
      "naive": 6654,
      "demons": 6655,
      "##ification": 6656,
      "scenar": 6657,
      "campus": 6658,
      "histor": 6659,
      "variety": 6660,
      "nurt": 6661,
      "ordell": 6662,
      "politics": 6663,
      "encoura": 6664,
      "delivery": 6665,
      "woods": 6666,
      "graduate": 6667,
      "initial": 6668,
      "weapons": 6669,
      "newspaper": 6670,
      "professor": 6671,
      "structure": 6672,
      "grandmother": 6673,
      "appropriate": 6674,
      "october": 6675,
      "revenge": 6676,
      "##reciated": 6677,
      "kennedy": 6678,
      "austral": 6679,
      "vintage": 6680,
      "ak": 6681,
      "bone": 6682,
      "cd": 6683,
      "domin": 6684,
      "fiction": 6685,
      "hind": 6686,
      "jon": 6687,
      "num": 6688,
      "pic": 6689,
      "rhy": 6690,
      "wire": 6691,
      "##ez": 6692,
      "##cery": 6693,
      "##wear": 6694,
      "##kins": 6695,
      "##fice": 6696,
      "##fting": 6697,
      "##iner": 6698,
      "##inated": 6699,
      "##enna": 6700,
      "invent": 6701,
      "dod": 6702,
      "ancient": 6703,
      "##urning": 6704,
      "neut": 6705,
      "caut": 6706,
      "sept": 6707,
      "cham": 6708,
      "chew": 6709,
      "upl": 6710,
      "exhib": 6711,
      "bare": 6712,
      "france": 6713,
      "uneasy": 6714,
      "tail": 6715,
      "conven": 6716,
      "dismiss": 6717,
      "clu": 6718,
      "clown": 6719,
      "somethings": 6720,
      "emper": 6721,
      "dies": 6722,
      "relative": 6723,
      "slipped": 6724,
      "distant": 6725,
      "generation": 6726,
      "drawn": 6727,
      "curios": 6728,
      "admir": 6729,
      "positively": 6730,
      "calories": 6731,
      "tons": 6732,
      "possession": 6733,
      "subc": 6734,
      "expand": 6735,
      "informed": 6736,
      "slightest": 6737,
      "returning": 6738,
      "privacy": 6739,
      "meds": 6740,
      "rape": 6741,
      "rejection": 6742,
      "publish": 6743,
      "companion": 6744,
      "judging": 6745,
      "practical": 6746,
      "choosing": 6747,
      "protected": 6748,
      "nav": 6749,
      "international": 6750,
      "stepping": 6751,
      "required": 6752,
      "capacity": 6753,
      "##odes": 6754,
      "murdered": 6755,
      "communicate": 6756,
      "amongst": 6757,
      "folk": 6758,
      "guts": 6759,
      "castle": 6760,
      "dickson": 6761,
      "depends": 6762,
      "patterns": 6763,
      "saunders": 6764,
      "guests": 6765,
      "associated": 6766,
      "shadow": 6767,
      "ignorance": 6768,
      "slave": 6769,
      "miracle": 6770,
      "disrespect": 6771,
      "mixture": 6772,
      "sewing": 6773,
      "nagging": 6774,
      "seventy": 6775,
      "corporate": 6776,
      "italian": 6777,
      "emptiness": 6778,
      "attorney": 6779,
      "dallas": 6780,
      "tattoo": 6781,
      "campaign": 6782,
      "fri": 6783,
      "fog": 6784,
      "fier": 6785,
      "gate": 6786,
      "naus": 6787,
      "pussy": 6788,
      "tent": 6789,
      "tuck": 6790,
      "vamp": 6791,
      "yarn": 6792,
      "##bid": 6793,
      "##born": 6794,
      "##iat": 6795,
      "##lear": 6796,
      "##sa": 6797,
      "##rease": 6798,
      "##oh": 6799,
      "##xim": 6800,
      "##erg": 6801,
      "##erous": 6802,
      "todays": 6803,
      "##orable": 6804,
      "##estern": 6805,
      "##itating": 6806,
      "##eav": 6807,
      "hamm": 6808,
      "##stone": 6809,
      "##otivated": 6810,
      "lion": 6811,
      "stores": 6812,
      "##idal": 6813,
      "soo": 6814,
      "##cho": 6815,
      "noticing": 6816,
      "##ulting": 6817,
      "whatre": 6818,
      "cad": 6819,
      "cafe": 6820,
      "##roc": 6821,
      "chuck": 6822,
      "exists": 6823,
      "union": 6824,
      "unbelie": 6825,
      "disor": 6826,
      "proced": 6827,
      "string": 6828,
      "stream": 6829,
      "##agger": 6830,
      "twom": 6831,
      "realization": 6832,
      "tracks": 6833,
      "coupl": 6834,
      "handful": 6835,
      "interpret": 6836,
      "trips": 6837,
      "childish": 6838,
      "ministry": 6839,
      "highlight": 6840,
      "muslim": 6841,
      "creatures": 6842,
      "production": 6843,
      "tendency": 6844,
      "breaks": 6845,
      "continuing": 6846,
      "empathy": 6847,
      "visual": 6848,
      "##ugged": 6849,
      "races": 6850,
      "privilege": 6851,
      "struggles": 6852,
      "jacket": 6853,
      "senses": 6854,
      "treating": 6855,
      "sixt": 6856,
      "responses": 6857,
      "dresses": 6858,
      "closet": 6859,
      "monkey": 6860,
      "floating": 6861,
      "drops": 6862,
      "spoken": 6863,
      "senior": 6864,
      "blowing": 6865,
      "flowing": 6866,
      "officially": 6867,
      "package": 6868,
      "politic": 6869,
      "operation": 6870,
      "headaches": 6871,
      "recip": 6872,
      "vanessa": 6873,
      "application": 6874,
      "##flies": 6875,
      "bowl": 6876,
      "stroke": 6877,
      "dignified": 6878,
      "colours": 6879,
      "altogether": 6880,
      "cheeks": 6881,
      "assignment": 6882,
      "philosophy": 6883,
      "demonstr": 6884,
      "multiple": 6885,
      "uniform": 6886,
      "rescue": 6887,
      "thomas": 6888,
      "athlet": 6889,
      "vigorous": 6890,
      "disadvantaged": 6891,
      "cautious": 6892,
      "bour": 6893,
      "busted": 6894,
      "ce": 6895,
      "ip": 6896,
      "nd": 6897,
      "pian": 6898,
      "sid": 6899,
      "tan": 6900,
      "upper": 6901,
      "##eous": 6902,
      "##rison": 6903,
      "##uate": 6904,
      "##kind": 6905,
      "thri": 6906,
      "fee": 6907,
      "thatll": 6908,
      "##arter": 6909,
      "##icle": 6910,
      "canada": 6911,
      "cozy": 6912,
      "intensity": 6913,
      "agency": 6914,
      "##ado": 6915,
      "##arded": 6916,
      "woe": 6917,
      "advert": 6918,
      "brow": 6919,
      "##agers": 6920,
      "removed": 6921,
      "contest": 6922,
      "download": 6923,
      "tweet": 6924,
      "smiled": 6925,
      "underne": 6926,
      "endeav": 6927,
      "sincer": 6928,
      "couples": 6929,
      "passes": 6930,
      "assure": 6931,
      "##uction": 6932,
      "##udge": 6933,
      "sket": 6934,
      "stops": 6935,
      "entr": 6936,
      "instance": 6937,
      "arts": 6938,
      "counting": 6939,
      "countries": 6940,
      "defensive": 6941,
      "republ": 6942,
      "infur": 6943,
      "april": 6944,
      "disgust": 6945,
      "##abor": 6946,
      "spirits": 6947,
      "frag": 6948,
      "grocery": 6949,
      "victory": 6950,
      "##stein": 6951,
      "examination": 6952,
      "transfer": 6953,
      "holes": 6954,
      "bloody": 6955,
      "prepar": 6956,
      "closing": 6957,
      "penny": 6958,
      "effective": 6959,
      "entertainment": 6960,
      "smells": 6961,
      "property": 6962,
      "cookies": 6963,
      "boxes": 6964,
      "neglecting": 6965,
      "packing": 6966,
      "portion": 6967,
      "nursing": 6968,
      "periods": 6969,
      "suggestions": 6970,
      "replied": 6971,
      "billy": 6972,
      "previously": 6973,
      "applied": 6974,
      "venture": 6975,
      "assistant": 6976,
      "ultimate": 6977,
      "temperature": 6978,
      "network": 6979,
      "alternate": 6980,
      "mountains": 6981,
      "stretch": 6982,
      "praise": 6983,
      "loads": 6984,
      "acknowled": 6985,
      "weapon": 6986,
      "exceptionally": 6987,
      "announce": 6988,
      "railroad": 6989,
      "perceive": 6990,
      "survived": 6991,
      "pardon": 6992,
      "committee": 6993,
      "israel": 6994,
      "diamond": 6995,
      "curiosity": 6996,
      "underneath": 6997,
      "eu": 6998,
      "furn": 6999,
      "fbi": 7000,
      "hust": 7001,
      "houses": 7002,
      "jess": 7003,
      "kim": 7004,
      "kend": 7005,
      "melt": 7006,
      "rog": 7007,
      "rushing": 7008,
      "ug": 7009,
      "ye": 7010,
      "yan": 7011,
      "##ige": 7012,
      "##ived": 7013,
      "##to": 7014,
      "##rome": 7015,
      "##aking": 7016,
      "##ault": 7017,
      "##ket": 7018,
      "##kers": 7019,
      "##pir": 7020,
      "##parent": 7021,
      "##des": 7022,
      "##field": 7023,
      "##orters": 7024,
      "##esth": 7025,
      "##render": 7026,
      "inn": 7027,
      "inability": 7028,
      "liar": 7029,
      "stays": 7030,
      "sticking": 7031,
      "socks": 7032,
      "##cha": 7033,
      "##illa": 7034,
      "sucked": 7035,
      "logic": 7036,
      "frances": 7037,
      "nowad": 7038,
      "coinc": 7039,
      "santa": 7040,
      "blast": 7041,
      "preys": 7042,
      "precis": 7043,
      "sheer": 7044,
      "que": 7045,
      "offensive": 7046,
      "##lessly": 7047,
      "illeg": 7048,
      "smarter": 7049,
      "##ealthy": 7050,
      "boston": 7051,
      "flip": 7052,
      "sites": 7053,
      "tries": 7054,
      "kidna": 7055,
      "##mond": 7056,
      "income": 7057,
      "draft": 7058,
      "synd": 7059,
      "chris": 7060,
      "standard": 7061,
      "explos": 7062,
      "puff": 7063,
      "visited": 7064,
      "compliments": 7065,
      "exhaust": 7066,
      "sickness": 7067,
      "fourt": 7068,
      "fourth": 7069,
      "connections": 7070,
      "eleven": 7071,
      "somebodys": 7072,
      "##ashed": 7073,
      "everybodys": 7074,
      "dana": 7075,
      "simpl": 7076,
      "condem": 7077,
      "central": 7078,
      "legit": 7079,
      "stepped": 7080,
      "purpos": 7081,
      "immediate": 7082,
      "digg": 7083,
      "literature": 7084,
      "bands": 7085,
      "soldiers": 7086,
      "treasure": 7087,
      "washed": 7088,
      "tricks": 7089,
      "narc": 7090,
      "january": 7091,
      "spanish": 7092,
      "participate": 7093,
      "racing": 7094,
      "indulge": 7095,
      "sacrifice": 7096,
      "tunnel": 7097,
      "disagree": 7098,
      "gordon": 7099,
      "downtown": 7100,
      "september": 7101,
      "unbeliev": 7102,
      "nowadays": 7103,
      "preysing": 7104,
      "cure": 7105,
      "dim": 7106,
      "dess": 7107,
      "dates": 7108,
      "pent": 7109,
      "pam": 7110,
      "rising": 7111,
      "tub": 7112,
      "wif": 7113,
      "##care": 7114,
      "##pal": 7115,
      "##ost": 7116,
      "##itate": 7117,
      "##lling": 7118,
      "whore": 7119,
      "inh": 7120,
      "##lection": 7121,
      "shade": 7122,
      "##rand": 7123,
      "whatd": 7124,
      "upcoming": 7125,
      "##umes": 7126,
      "conqu": 7127,
      "spray": 7128,
      "##eps": 7129,
      "overs": 7130,
      "##olar": 7131,
      "packed": 7132,
      "brook": 7133,
      "##ealth": 7134,
      "insult": 7135,
      "harv": 7136,
      "confusion": 7137,
      "##blog": 7138,
      "cramp": 7139,
      "genius": 7140,
      "crum": 7141,
      "surrender": 7142,
      "assass": 7143,
      "mustve": 7144,
      "childs": 7145,
      "hubby": 7146,
      "earn": 7147,
      "regards": 7148,
      "indic": 7149,
      "##apping": 7150,
      "obst": 7151,
      "priest": 7152,
      "subtle": 7153,
      "repair": 7154,
      "reference": 7155,
      "reflection": 7156,
      "polic": 7157,
      "purely": 7158,
      "purple": 7159,
      "embarrassment": 7160,
      "raising": 7161,
      "midst": 7162,
      "powerless": 7163,
      "##ficial": 7164,
      "voices": 7165,
      "reminding": 7166,
      "transport": 7167,
      "dressing": 7168,
      "circles": 7169,
      "seasons": 7170,
      "behave": 7171,
      "dreamed": 7172,
      "authors": 7173,
      "celebrating": 7174,
      "roller": 7175,
      "rolling": 7176,
      "requires": 7177,
      "surroundings": 7178,
      "girlfriends": 7179,
      "attempting": 7180,
      "##chester": 7181,
      "garage": 7182,
      "boost": 7183,
      "accomplishment": 7184,
      "royal": 7185,
      "debate": 7186,
      "butterflies": 7187,
      "##iasm": 7188,
      "junior": 7189,
      "wandering": 7190,
      "feminine": 7191,
      "sheriff": 7192,
      "twisted": 7193,
      "trigger": 7194,
      "doroth": 7195,
      "misunderstood": 7196,
      "heavily": 7197,
      "anthony": 7198,
      "horizon": 7199
    }
  }
}